16 34 ffcf 7 ffbf 8 ffcf ffcc ffe7 18 1a 20 ffef 3c ffec ffcf 34 ffc3 48 fffe ffd8 ffe5 ffc0 ffe9 2a fffa 49 ffd2 ffba ffd1 ffd3 2d ffc1 18 27 3f ffc2 44 1d 3 ffe2 ffc9 e 18 ffb8 17 fff9 d ffbc 28 22 25 34 3e ffdf 3a ffd3 ffdc ffba fff0 ffe4 0 1d fffe 43 ffd2 fff3 31 ffc5 1b ffcc ffda 16 3f b fffa 1d fff0 35 ffc3 44 3 9 f 20 ffc8 41 3a 1d ffdd 14 fff0 ffd1 ffe1 1f 44 ffca 24 fff4 ffe3 c ffe8 5 ffc7 ffd2 ffc0 1c 30 ffc5 ffd4 fff6 16 fff9 ffc6 0 3f fff1 ffee ffcc ffba e ffe7 ffe4 ffdf ffcc fffe 1f ffd0 fff3 ffe9 27 17 10 ffd8 6 2e 1e 27 38 fffe 18 37 fff4 19 ffc5 10 fffa 34 14 ffeb 27 8 fff2 ffab e ffa9 18 ffcb ffef 25 39 3d 4 21 ffef ffe8 ffe7 ffc4 33 45 fffc 2d 2 ffcd ffc1 c 16 25 ffa4 ffea ffa7 fff7 ffaf ffdc fffd fff0 ffea fff1 ffe6 b 7 12 ffc4 ffe7 30 b ffea ffc3 ffbf 3 25 ffca fff0 27 fff2 ffb8 ffc7 fff6 6 ffd8 15 ffc7 12 0 ffd3 ffce 28 ffd6 ffd9 fff8 ff94 fff4 ffd7 ffe3 ffe3 ffd1 15 2d ffc8 ffc3 e 7 15 17 26 ffd8 ffb4 4 fffd b ffff ffc7 ffc0 ffcf fff8 28 18 fff1 fffb 32 d 45 ffc4 2e 0 ffc4 ffea 7 ffab 36 ffd8 ffb5 24 1b ffdb ffe2 1e ffc0 ffce 20 c 32 4 18 ffb4 9 35 33 42 b 26 24 1f 10 18 ffb1 23 ffed 31 ffc5 ffeb ffd7 fffc 1 ffd4 ffa9 a 4 ffb5 0 ffb3 ffdb ffc6 28 ffe9 ffdd ffe3 15 ffcd ffbe 2d ffc1 ffec 0 33 fffa 11 ffe7 ffcf fff4 ffd7 6 ffc5 ffff ffc3 ffb7 38 ffde 33 ffcd 35 ffd6 fff1 11 fff1 41 39 ffc8 34 19 ffcb ffb5 fff2 ffb6 ffb1 17 fffb 2b 30 29 9 ffcf ffbf 2e ffc7 ffb7 2b b 1c fff6 2d 34 ffee fff6 9 fff2 7 39 ffbd a ffaf fff8 ffab 37 ffc7 ffdf 24 2f fff6 ffe6 e 12 ffd5 ffd4 ffc4 32 ffd5 ffcf 32 3d 3a ffd3 ffe1 17 12 fff9 25 16 ffb5 2c ffca 30 ffd0 ffda ffcf fff0 8 ffd6 fff4 ffda 10 ffa5 ffe3 fffc fffe fff9 ffb7 ffea ffc2 ffdd ffd0 ffd5 11 e ffeb ffdd 1f ffdb 19 19 fffd ffcb 20 ffd5 ffc7 ffbc ffec ffe6 26 fffa ffe7 33 21 ffe9 17 ffc5 16 fff3 47 22 24 8 fff9 ffc1 fff9 12 ffbc ffc9 ffd6 6 fff5 ffab 38 7 2e ffbb fff9 3 ffcb fff8 fffd ffdf 40 ffd1 4e ffe4 34 ffc3 ffba ffeb ffbc 14 32 3 51 ffde fff9 1b 6 ffe7 5 48 fff5 fff1 2f ffa0 16 2 ffd8 3e 3b ffd8 ffe6 ffc5 ffcf fffd 38 7 fff7 fffb ffef 33 ffd2 2 20 25 2 ffde 46 fff8 ffe7 0 31 fffd fff6 36 ffc6 ffc0 ffe3 ffec ffec 1d ffba 2b 2 ffd8 22 ffdb 14 2b fff8 ffdb fffa a ffdf ffcf 19 ffe2 ffd3 ffe4 19 0 ffd1 ffb2 ffd0 ffba ffdc 23 15 3e 3 a 34 ffc3 8 ffd0 1f fff4 c ffb8 fff4 ffd3 ffd5 ffd9 ffe2 ffe9 28 25 ffb3 e ffef ffd0 29 ffba a 12 27 27 ffd8 ffdb e 17 fffc 27 15 23 ffd5 fff2 18 ffe3 6 fff7 ffc1 ffb0 fff7 ffe0 12 1 26 ffdf ffc9 ffba 1b ffec ffcc 46 0 fffb fff3 35 ffba ffd2 ffdd 18 22 ffc5 ffdc ffad 12 ffc4 1f c ffeb fff4 ffc3 ffd9 38 ffdb 1c ffc7 15 40 fff8 ffdd ffea ffc8 39 47 ffbe 12 ffc1 fffd 24 ffab 5 ffa8 ffd5 fffc ffd5 2b ffa3 b ffc5 ffce ffd2 ffe6 ffe4 2 ffd5 1f 1a 0 4 48 ffe2 ffe6 14 ffba fff8 4 36 ffde fff9 ffe1 ffee fffd fff9 ffeb 16 37 ffe9 47 ffc5 ffcd 1d ffbd ffd5 fff6 45 fff7 2b 2a ffeb 2e 15 26 ffbf ffcd ffc1 10 6 3a ffaf fff3 1f d 9 3b ffdc d ffdf 45 32 44 ffe0 ffdf ffea 1d ffba 3 37 ffcb 1 ffcc 19 1b 10 ffed ffb5 2 18 17 ffb9 ffaf 34 2 41 2b 25 fff0 14 ffc5 fffe 24 ffe9 9 fff0 35 ffbc 20 2b d fff5 fff3 ffe5 fff0 2b ffe1 ffd9 ffe7 fff8 ffc9 3f fff0 17 42 ffd6 1c 0 ffbf ffcb ffd7 ffc9 28 ffc9 ffe0 2a ffd7 fffc ffce 2f ffb9 11 30 24 ffe8 66 8b 58 a3 18 3 4 fffc 3 fff3 38 ffe0 18 ffe4 36 11 fffb 14 ffec 3 ffd9 ff84 ff8c ff7f fef7 ffa3 ffa8 ffec ff64 ff91 ff99 ff60 ffed ffbf fdf0 feab ff10 ff1b ff1d ff94 ffe7 21 fff8 fff0 3b ffcc ffc1 1a 58 ff96 fed5 ff72 fdb7 fdfa fd22 fdc4 fe93 fed9 fd85 fdb2 fee8 fe99 fdb3 fdb5 fccd fe00 fe74 fdec ff4f 2 18 fff1 40 ffbe ffee ff93 ffa9 fe8f fe02 fd63 fe16 fe93 fe1a fe2b fd8d fd21 fd94 fe37 ff6e ff8b fd99 fd2f fec1 ff3e feb1 fde5 feb9 ff5d fff3 ffd5 ffeb ffce ffcc 64 fef9 fdb2 fd4a fd86 fdc4 fe64 fd66 fdba fde8 fe3f ff2e 24 33 113 a6 ff37 ffa0 fff7 ffc4 ff27 ff99 ff96 66 ffcf fff1 ffd8 fee0 ffac fea3 ff1d ff03 fe7d ff87 ff19 fe68 fe57 fe4e fe6b ff37 fee5 ff53 ff97 ff80 fed0 ff31 ff6f 14 feb6 fe56 ff9d c5 ffd2 fff9 ff10 131 48 45 1af fffd ff3c ff71 fef8 febb fe44 fe58 fe68 fefc ff0b fe58 fec9 ff1f ff6c ff3d 21 12a a1 ffc3 ff58 203 84 66 63 1c2 24f ffee 99 14b d6 70 d2 a6 2c ffa1 ffc4 ff01 ff0d ff5c 53 cd 29 ffad a 166 188 8d ec 16a df 101 14b 28e 17d ff68 15c 18c 1c2 1c7 1de 191 180 1b0 4c bf b0 12f 12d 181 93 182 f3 1ca 2ef 324 305 4a d0 b9 1e1 17b 18c 8 185 1ad 15b 13a 140 153 25d 288 1e8 149 e5 1f5 25a 29e 175 18f 14e 15a 1f9 3c2 2ed ca 123 10c 27b 25e d5 6e 111 164 130 cc 1aa 156 1f4 266 233 147 19a 208 16d 10d ce f1 15f 1cb ff9f 17a 24e 212 8e 16e 210 196 fb ff6c ff85 f0 94 9 93 149 22c 1dc 106 b1 3d 6b ffeb 0 b7 9c 2f fff7 ff52 ff99 ffe5 166 ffb3 bb 1b6 110 ae feff ffb0 59 34 60 25 163 21e e7 fff4 ff44 ff47 feac fefa 90 131 ba ffbb 3f fe80 fe69 ff55 1ce ff23 ffe9 255 204 116 1e 88 12 115 52 ff97 c8 1b2 77 ff6c ff98 ff02 fd45 fe7c 82 2d 93 55 34 ff4c 27 e2 15b ff64 e0 159 21d 110 100 df 94 1c0 45 ff9c 4a 7b ffef ff86 ff82 ff1f fd43 ff00 8 1c 6f 5e d5 1ac 1f7 d2 c1 ff70 ed ffb4 115 cb 172 e2 54 125 ffb4 ffd3 ffe1 ff87 ff87 ff01 ff70 ff2c fd72 c a8 d 5 7a 15b 233 1ef 17 62 e3 70 ff23 ff32 23 1c8 99 ffc0 ffda 3c ff27 ff04 fee4 ff8e ff29 ff93 64 ff7c 107 80 ffec 121 140 b1 ba cc ff5c d2 178 11 ff0a ff4d 31 25c 162 4b ff36 ff2f ff1e fe89 fe2a fecc ff86 ffff 31 51 d2 66 ff96 bc 10a b 37 190 31 100 de 84 ff89 56 ff39 18b 1f0 64 feda ffb8 fe71 fd5a fe9f fe92 ff48 ffc7 2c 43 ffa2 fefb ff17 51 0 ffae 0 86 ff86 159 ffeb ffdb bc 15a 5c 140 17e ad ff2e ff2c fdd7 fd43 fde3 fec3 ff18 ffd0 ff0b ff1b ff3c ff32 ff74 58 ffeb ff92 ffe5 195 6f 75 ff9c 26 65 35 ffab 27 214 b3 fe78 ff68 fe89 feb2 feff ff78 ff5b ff06 fe5d fe99 ff24 fe7e ffb1 ff14 ff8c ffc2 12 e1 b ffaf ffeb ff65 ff24 ff62 ff5e ffdc 9 65 fee2 ff54 ffbd ff7b ff38 ff19 ff22 fe4b fe3f fe4f fe92 fda0 fec1 fed0 ff3b ffa7 ff9c 49 ff93 e3 81 ff5c ff42 ff13 ff92 fe84 ff05 d5 132 ee 9d 97 ff67 ff9b ff6d ff01 feec ff3f fefb fe80 ff53 fe67 fea2 24 ffdc e3 ffdd 8e 61 39 3 fe29 fec5 ffab ff32 ae f8 c8 12d 1cd 114 b1 fff9 80 ff93 39 2 ff33 fef7 fe36 fe72 fdab ff0f 4d 47 ff67 ffb8 ffd3 ffb7 ffc5 91 80 111 76 b ffd3 ff9b ffcb 36 88 be 47 38 f7 4e ff5d fff3 ffc6 ff5a ff81 fef2 1c fef2 ff2e ffe9 fff0 ffee fee1 1d0 bd ff74 ff66 ff5c ff41 ff25 0 f7 25 45 83 147 16f 145 95 14 ffaa 92 196 13f 163 ff5e ffd1 ffee 2f ffe8 ffd2 ff45 fdc3 fdaa fe6a ff0c ffba 12 ff8f ffef ffe3 160 a cb 2d ff33 6 171 ffa8 1f 1d1 5b fef5 aa ffe7 ffe8 8 ffe3 c ffdc 134 1e0 89 d 50 76 61 ffae ffe4 1f0 ffc4 46 6e 15a 72 ffc6 bb 152 c7 f3 2c 22 3 f 7 ffdd fffa fff7 fff0 fff1 a ffd3 ffe5 23 f 8 66 26 1d ffe9 ffe9 ffd9 2 ffcc fff5 24 fffc ffd5 31 45 ffe0 1b ffd8 fffc 20 1a b 9d 110 189 17d 108 a9 7d 146 214 2a3 19f 1ea 286 212 123 96 3b d6 4f 2e 34 45 37 12 ffbd ff96 4e e3 ef 1f8 1f1 1d6 172 2a1 363 31d 3fd 49c 379 363 3bc 39f 2d1 28a 17b 207 166 ffc0 ffb3 ffda ffbc 8 4 ffba 20 8e d5 19d f3 11c a8 b9 f5 1ac 209 1b1 17d cd d8 1c4 258 207 13e 88 8f 8a ffdc fff9 14 fffd ffff 57 15d ffb1 90 10f 4 fef5 ff74 40 fff4 ff17 fe9d ff6b 46 6b 41 138 148 102 1e2 10d b8 cf c2 117 fffa ffc2 fff4 12b ff9e ff95 19d 51 ffa7 ffd6 76 bd 73 3b 4 ff5e ff93 af 18e 1ae 14b 114 81 231 df a1 8f 82 64 25 ffd7 fffa fedc 13 f0 25 5f cb 121 fb 99 fff4 51 97 ad a0 1a6 1a1 1f6 11d da e3 ff3a c0 f7 88 b9 c 94 88 ff1b 71 ef ffc8 6b 136 110 b2 79 d7 d1 186 8c 66 fc 112 fb bd ffcf ffa9 ff21 ffb0 1dd 21a 11b ffdf 2e 26 ff05 fef2 ffd3 ff6c fffb 86 89 2c 9f fd 85 ffd0 fefa feb2 fefb ff30 ff00 fef9 ffed ff8a ff42 ff67 7b 19a ec ffbf ffe9 fe54 ff85 63 ffa3 ffbc 96 fd 5c ffcb dd 3f fe81 fd2c fc5f fc0b fccb fcb9 fc36 fd31 feaa ff61 ffa8 fef2 d e9 8e 6 ff3b fe3d b8 ffa7 ff89 ff6b 84 159 8 ffb7 65 ff47 fe6d fcff fcc1 fe0d fdb9 fcad fc3c fd19 fd53 fcd2 fc6c fd9c ffc8 d5 4e 26 fea6 fe78 54 88 ffaa 15 ffdb ffdc 3d 43 ffc4 37 ffd3 ff10 45 136 76 ff81 feaf fe13 fd5f fcb7 fbff fc94 feeb 4b fff8 26 fed4 fdfd ff04 ffe5 a6 10a 51 3e 1f 125 cf fffd 48 32 84 160 d7 84 34 83 ff11 ff2c fdb3 fd30 fe4a ffa3 ff80 fff2 ff1a fe57 ff3a b2 59 ff96 ffba ff22 16 c0 db 74 52 a4 7c 141 36 ff21 ff81 5d ef 71 ffea ff74 fdf8 fdd0 ffda c2 97 ffc3 fdd0 98 fefd ff0f ffff c3 e 65 fff9 6e ff7a 28 128 100 ffb6 ffe3 ff75 4c f1 16d 139 75 fdb8 fd17 ffba bb 132 102 fefe fe1b fe5f fe3c fedd 3e 116 15b 1a1 15d 38 9d 113 67 1 3a 10 5e 21e 21f 192 105 fdea fede ff8c ffbf a0 138 7 fd88 fcff fcc8 fe5a ff10 cd 138 1d8 1da 10f 4f 9 ff60 ff38 f cd 8b 18e 24b 183 a7 fd8a fd2e ff8c ffdc ba 9c 1a9 feb7 fde4 fd59 fe4c fe90 feb2 fea7 ff45 ff2f fed9 ff13 ff73 fe54 ff3a 6f 108 83 1a4 215 150 e8 ff36 fd40 ff45 35 46 b1 23f 10 fe2d fd98 fe17 fdbd fcf0 fc41 fce0 fc55 fbc8 fc8b fda3 fee4 ff88 c3 14e 13f 26d 1b4 199 136 36 fedd ffbc 48 6c 158 28b b2 ff34 fd97 fd81 fe67 fd9f fc9f fde2 fd51 fcc4 fd89 fe1f ff53 ffde 7a 102 1b0 209 130 144 225 e5 fed0 ffd4 0 ffd2 dc 2bc d1 fff5 fec8 fe82 fede fedd fe6b feb0 fe4d fed2 ff1a 1b 85 99 d9 15f 1e7 1cf 10c ef 139 137 ff87 ffc8 ffcf 2d ffea 261 268 7f 1e 11 ffcd ff0a fff6 ff5d ffe7 10 97 ad 97 1a d0 1a1 165 e1 a8 77 78 ff9b ffdd ffcd 1e ffc4 ffcb 177 1c4 1cb 11f 49 77 1f 3d 6e 34 65 94 9d d9 b6 11f 168 10e ffde 75 8d ff60 ff32 ffa2 fff2 ffde fff3 1ab 2bf 29d 28e 2d8 1ed fe f7 1a3 132 de 12e 157 11a 10e e4 41 89 ffc9 ff01 32 70 ff94 ff74 46 ffd8 f 9 cd 1cf 20a 1fb 309 3a8 221 1c6 236 214 1c8 22a 1df 1af 138 11a ffbd fe8a ff8c fff8 e7 d6 50 ffeb ff95 ffea ffd2 22 53 162 14f 1d3 344 3e0 4ed 44c 320 3b1 3d9 2eb 159 23c 14d ffe9 ff21 ffe9 e3 18f 199 131 e1 1f ff93 3 30 fff5 1 20 33 c4 d9 61 c4 195 24d 12e 2d 43 b1 19b 85 0 fe4c fe8f ffce 7f 99 dc ffdb ffd4 22 1a ffcb 2 ffc1 36 ffec ffcc ff81 ffba ff2b ff81 fe9b fe94 ff14 fea2 fe7a 2e ffef ff0b feb9 ff31 feb3 ffbf ffa9 ffe9 16 ffbd ffea 0 3a fffc ffbc ffde 19 32 33 ffc5 ffd3 ffd5 2a ffcd ff50 ffae fff5 1c ffd2 46 0 ffb9 1d ffd8 37 ffd7 f ffca c ffdf ffda ffcd a ffd3 ffcb ff3f ff3b ff17 fe3e fde1 fdd1 feed ff11 fe4a fec4 fd2c fcbe fcdd fcfb fd7c fdb0 fdad fe01 fee9 ffe4 21 1d 39 ffba ffbc ff58 ff78 ff7a feba fe8c fe79 fd69 fb48 fbae fa99 fada fbda fb0b fb34 fcfe fc6b fc44 fb81 fc66 fd0e fdab fd95 fed0 ff99 11 e 44 ffdc ff56 fe81 feeb fecf fd8d fc27 fbd7 fc0c fc3b fcb8 fc79 fa7e fb4e fdcb fe6c ff3f fe47 fd45 fcf2 fe1c fee5 fd92 fced fe52 feed d 36 ffc5 0 ff6c ffbd fe2f fd5c fdae fdb3 fe1e fd7c feb0 feaf fec6 fe9c ff7e ff97 26 ff94 fee4 ffa1 195 162 7d d1 5c 19 83 ffe0 28 fe5d fe78 fea1 ff71 ff96 ff7d 85 121 63 d7 123 56 5f d1 37 65 ffe1 ff34 fe35 fffa d8 ffcd ff8a 9 fe9f ff96 ffe7 ff86 44 b4 ffe1 141 6d 25 fc 1f e 83 56 ffe9 ffd0 22 7b 16f 5d ff9a ff4f 89 fe 131 feaa feba fe69 fed3 6d 28 18f 2ba ffdd ffda eb 53 ffe1 ee 64 48 ffc2 ff84 fea7 ff53 2a 166 11b 96 31 46 52 10d 28 fe54 ffa9 ff50 135 174 1d1 1d2 85 9e 173 1e1 1f6 1c1 94 6b 2e ff29 ffef fff7 c 7 d8 fff7 ffc4 ffcc fee7 ff80 ff47 ff2c ff63 ff0c df 1a5 c4 129 ffec ab e9 100 155 148 97 41 1e ffc3 ffff ffbc fff5 91 11b 152 f5 ffff fed8 fe6c fe1d fef7 ff4c 1a 132 1dd 229 7c c4 bd fff0 cd 87 163 b6 52 20 fffc 13 27 7 9b b6 117 99 4c ffa2 fd5c fdae fdd9 fdf1 96 1d5 267 203 14d ff85 ff92 ffb9 ff 18b 166 1af a6 53 17 ffde 7c fffd fa 112 113 97 ff73 ff1e fd57 fcf0 fcd7 ff1c 47 d9 1d1 219 229 ff08 ff18 ffa4 ce 15b c2 4f 89 d9 fffa feb9 47 53 164 239 137 60 c6 32 fe78 feb1 fe63 c 30 ffd0 258 2d1 186 ff9c ff0b 1d 103 e9 c7 9 11c 5b fe9a fe80 67 ef 1c1 1fa 95 fb 12d 53 fe6b fe6d 16 ff31 ff0a ff6b 162 1cf 78 58 6e 37 f1 a8 53 ffc9 e6 96 ff34 fffa 56 109 2f0 1c9 1de 7d ffd4 ff1c fee8 ffe6 25 ff10 ff3f ff89 ffd8 aa dd ff4f ff66 ff71 af a6 61 6e 60 12 ff92 ffbc 121 dc 25a 170 6e 64 ff68 1c ffd6 fed8 ff72 28 ff8f f3 ff6b fec4 ff5c ff1c fec7 ffbf 7e 15e 8f ffbc fefb 6c fff1 2b 149 168 1ad 53 12 105 fffb ff3b feda feaf fd47 fe45 fffa 26 ffe3 ffdd fec2 ffab fea8 ff13 ff63 ff68 25 ffe4 63 139 f2 c9 100 117 85 ffb5 ff67 8b ffec ff9a ff52 b3 fedb ff49 feda 90 ff88 163 ff48 ff5f fec1 fe2b fe6b fe8f ff78 ffdd ca 88 4e 16 fffc b ff11 fef5 ff1f ffb2 ff1d fde5 fd88 fe7e fde0 66 ff1d ff9d 140 d8 52 ff9f fe5d fe5f fda1 fdd4 fecb ffa1 ffce fff7 ffb1 ff3d ff0f ff0f fea5 fe1c fee1 ff66 fdef fce1 fc4d fd97 fd41 ff14 ff38 40 df 13 fe7e fd24 fe06 fe06 fd49 fe1a ff1c fffc ff5b 64 ff5d fefe ff55 ff39 ff54 fe7c ff1c fe95 fd63 fcf6 fcd0 fde3 fdcc fe67 ffd6 ff6d ffa7 feb4 fdcf fc19 fe7a fe87 fdf8 ff38 ff71 ff4b ffb4 ffd9 ff22 ff0d ff99 ff8e ff14 fe9f fed6 feb3 fded fe5d fe0b fefb fec0 22 1a ff22 ffbe fddd fcf5 fc52 fd8f ff15 ffb8 5a ffa1 ffd5 51 42 22 ffbe ff8d ff4a fef0 fee7 ff9a fea6 fedf fed3 fe07 ff97 fece ff9f a1 3a 0 fde3 fc82 fd4a fd97 ff54 fffb ffae 32 e2 cf 93 43 26 ff90 ff79 ffd6 ff1f ff1d feaa 12 fe8b fdc2 fe53 fff7 feb9 fff4 ffe6 fffb ffda ffdb ff4c 7e ffe4 ff32 ff2a ff32 fff7 be ffc7 3b fff7 ff93 ff80 fed0 fe87 fffb a1 38 ff5c fe63 fd73 ff4a ff4c fff1 ffe3 1d fefc 1a8 c7 ff46 ff31 fed1 ff04 ff51 ff81 4 fec6 ff2d 5a fff5 ffad ff9d ff21 fe49 fec4 ff95 ffc8 fe99 fedd ff6e ff97 fffa fff0 ffdd ffe9 ff12 fdd7 fdac fe71 ff84 ab 5a ff47 ff67 ff28 23 ffc5 ff90 fee8 fe91 ff79 1 ff6b ff8b 110 4e ffd5 bf fff5 ffbb ffd7 11 ffc9 ffc9 150 1dc 21 9 b5 a4 d ff60 ff64 19e ffc9 c8 be 217 184 d0 149 19a 107 106 ffdf 9 1a 48 ffdc 2f ffcd fff3 11 3 fff4 ffd5 10 2c 19 ffbb 73 46 0 fffe fff0 ffbe 3f ffd9 ffc5 ffe3 ffef 15 43 ffc1 9 33 ffc3 0 ffe8 4 fffe 54 116 174 185 2bc 33a 4d2 250 29f 341 359 52a 3bb 2a7 11e ba c7 79 9f 22 15 32 ffe5 41 ffed 20 88 df 1ba 1c5 395 20a 2ab 3e3 3a0 389 311 255 393 453 225 208 27e 1db 7b 67 169 ffe1 3a ffc6 ffb9 ffeb f ffef 1aa ca ff9d 25c 301 1e9 25d 217 1a9 154 201 198 2c2 214 13e 26a 20f 143 1df 107 ffcf ffd6 0 a ffc9 ffd8 ffba ff00 e9 ac ff8a 63 ffff ff81 ff32 44 161 f6 69 1ce 1a2 123 33 161 163 a3 1b5 ff50 24 39 b7 f ffdf ffc8 47 16 ff9a 24 b5 107 39 c8 a9 13b 144 136 138 e7 12a 12d 16c 78 ff31 ff30 be fe6e fea2 ff76 4a c4 ffdc fffa 22 99 ff55 37 b6 ffde 121 160 13e 1a4 2fc 2dd 369 2a6 1a2 16d ffc0 fef1 febd fe10 fcc5 fb8b fb62 fd76 ff86 40 1f 1f ff30 188 fe74 fe83 ff57 154 13d 12b 135 25e 371 334 1f2 ac ffcd ff57 fd9e fce6 fcc5 fd64 fb4f fa1b fa30 fcb0 feb0 ffa0 1b 37 49 3d fe83 feaa da 18e 95 1e3 1d3 22d 2cd 4e fe15 fecb fe77 fd40 fd69 fd7f fdda fd04 fd79 fb59 fb57 fcd0 fe4d fec7 ffdd 37 ffc9 ff76 ff63 ff40 127 114 175 224 26f 234 11c fd99 fba8 fdcb fe7a fdc4 ff4c ff9e fe74 fd84 fd55 fc4f fd5e fe7d fdbb ff47 ff71 53 ffca ff3a fefe 15 139 20b 1be 195 150 72 fe70 fcb6 fb6c fde6 ffb1 a0 e9 1a4 12 ff68 ff98 fe90 ff69 11b 45 ffe4 ffbb 21 fe0a fe91 fec3 ffdc d6 1eb 108 11d 96 ff2a fdee fd7d fe44 5c 19d 26b 23e 28f 1cc 16a d8 113 1a4 1fe 7c ffb4 83 fff6 fe7b fed0 3f 4b ff9a 11a 76 66 ff9d fed2 fe1e fd49 fde8 fecd 39 10d f1 f3 147 113 144 1c2 23d 15b ff7c d3 8 1e fe7c ff25 40 172 39 ffac c8 ff81 ffc0 40 feee fe3f fe51 fe65 feaa ffa2 2c 41 c1 1cd 134 146 174 14e 88 ffba 3 f fe96 fee4 1 199 ffe3 4e 32 ffd6 fffc 9a c febf fe63 fde2 feba 57 4c b8 f8 1bb 140 1ab 1e 38 10f ffaf 54 59 ff24 fd8a ffe8 178 ffba 20 ff97 30 45 41 42 feff fe47 fd43 febd 6f 6a c2 c3 144 175 28 ff2e 27 220 ffb2 ffa5 ff51 ff2a fd3b fed5 af ffb1 ff77 fed2 ff4c fee9 ff1f 20 ff36 fd69 fe05 ff57 6a b0 75 82 ee 1e ff6e ffcb ffb9 2da 8e ffda ffed ff2c fdbf fe6d fe1f fff8 4d fe53 ff80 ff2b ff5c ffa5 fefa fde9 fee9 61 cc 92 8e 23 3c 23 ffd6 fed1 ff5b 3d0 5e 1d fff1 fee0 fd10 ff45 ffed fe89 ffa9 ff29 fe9e ff79 ca c3 ff0e fe46 29 ec b1 bc 57 ff82 30 5c 28 ff15 55 4a1 f6 ffa1 ffc1 febf bc 94 1f fdeb ff98 6 ff84 ffde 6e 199 ff87 fe75 ff9d 9b f2 3b 95 ff92 ffd2 fffb 29 ffe8 17e 470 ff8b ffe2 ffdf ff10 114 147 d8 128 ffc8 ff56 ffe1 4e ffef ffe4 fffa ff9b b2 e9 19b 83 87 4e ff59 ff61 3e 58 e3 32f 19 7 fff4 ff15 fe4f 9f e0 1c9 100 7c 140 181 105 5a 16 38 fff4 fb 1bb 2d 3a ff97 ffad febd ff59 5a 2bb 256 d3 2f 8 ff52 fdce ff75 100 158 b1 b7 d7 13d b0 9c ffc4 1 ff9b 5d e9 ffb4 6d ffad ff85 ff1a fff1 3d 192 13e 5b ffd4 fffc 1e fcfc ffdc ffa6 2 ae 7 28 1 ffd1 ffe8 ffb6 ff51 ffb2 fff0 ffee ffad ff22 25 d3 75 c4 10e 254 94 4a ffdd ffec 9 fff0 ff3c ffcb ff9e fee5 ff39 ffa0 77 84 ffbe a4 ff37 feed 11 ffed 102 14e 261 218 c7 12c 24e 221 5e fff0 ffde 44 ffce 2c ffab fff4 db fe92 fd72 fe55 ff93 ff8d ffc4 ffb9 feb7 ff64 ff07 feef 8e f1 a4 1f7 c9 ffe2 ff7f 137 6b fffa 9 3b fffd 46 ffd2 ff9f ffcc ff08 fee4 dd 115 ed ff3f ff7b ffb3 ffcc feb9 fef8 ffab 29 e0 266 10d ff6a 22 89 ffea ffc0 39 ffea 28 12 ffc8 b 0 3e 5e 17 d3 11c ff7d feff fd17 fc30 fc7e fccc fcb9 fefd f9 ff78 fe85 fe4b feff ffc6 19 ffee 21 31 0 fff3 2a ffe7 fff5 13 26 7 ffed 8 31 ffb0 ff92 ffb5 ffcc fffe 5 22 fffe fff5 ffc0 ffe7 ffdc 14 fff1 fffc 3d 4 27 2f 43 ffa8 ff9e ff0d ff6b fe94 fef7 fefa fef7 fe5d fe11 ff39 fdba fdb4 fe76 fe3e fdc7 fdf3 fe27 fe1d ff13 0 ffc3 ffec ffc2 0 ffc4 ffd5 ff4b ff17 ff63 ffaa ff45 fe65 fd57 fd50 fc90 fc77 fd43 fc53 fc4c fc67 fe03 ff57 fe29 fdd7 fd4d fd51 fd61 feaf ffb3 47 ffc8 0 1d ffe2 fe9b ff2f ff4b feab fdd0 fcf3 fc9a fd52 fe86 fc4d f9b5 fa9f fc58 fc9c ff06 ff39 fe5a fe46 ff29 ff2c fd8c fe7b fec2 ffdd ffd7 2f ffd7 ff6d ffe5 0 ffe1 fec4 fdc6 fd01 fd16 fc7d fdc6 fd51 fcec fd2b fd85 fd7e ff6a ff71 fe89 ff0b ffc6 ffd4 ff5b 10e d3 45 ff76 1d 3f fe90 ff41 ffcf ffdf fecf fe78 fe9c ff13 fff9 17 fff9 ff6c ffb6 fe35 fe24 ff19 fe08 fe0d feac fedf ffc9 feca fe86 d1 26 ff81 fff2 ff6f ffe1 fede ff7d f9 ffbc ff95 ff51 ffaf 1d c6 123 90 ff a1 c 8 ff65 ff2a ff76 ffae fc a6 11 c1 21f 34 78 fed3 11a d4 fe48 ff6c ffa4 ff43 ff55 d4 136 f3 116 170 db 155 19c 184 fa d3 2f 97 d6 1ef 226 1a7 22f b0 fff5 ff44 1cb 32 fe0c ff86 20 ffc3 72 15a 98 12d a4 32 a2 96 c2 c2 136 4d 87 4e ff9a 14a 56d 486 c2 5e ab af d3 feef fe30 ff6f ffe9 ffa1 64 d5 91 91 d8 ffc6 ff22 ffed 55 a3 cb d6 8d ff8f ff3c 47 412 473 1c4 134 af ffbe ff12 fdb2 fe97 fec2 fea5 ff0a 7b 1e7 fd 108 120 ff75 feb0 fff0 8 ffd4 4c fff6 ffb6 ff7d 7 0 373 509 265 f0 162 fea3 ff2b fdf9 fda6 fe22 fec8 5 115 21d 1ee 20d af ffc2 ff5d 8c dc 7c ffb3 fefa ff18 fed4 ff89 11e 233 201 1c4 1d 93 ff78 17 fe73 fd77 fdb3 fed2 49 1aa 163 1b7 1c6 2e 1 ffc6 149 e1 ffe4 ff5b ff06 fed5 ff7a ff83 2b fff5 1 13b ff31 ff5c ffe6 ff98 fdea fe49 fe1f fecb 10b e7 f3 1d8 162 f9 57 fffb 1bd f0 ffff ff98 ffa5 38 da fffe fe81 fe32 ff52 fefe feff 6 85 feb2 fe90 fef8 fe55 feed ab 10d 79 105 159 14a ffce ffd9 c8 e6 199 59 a6 88 ff9e ff18 ff23 ff7a ff12 fd6b feb1 57 33 fe71 feef fed3 fe40 fef0 ff8f dc d0 19e 188 81 ff51 ff6a b2 98 21a e9 ff62 ff9a ff1d ff30 5b fedf fe29 fe21 ff5d 9a ff94 fe0f fe2d fe0d feb3 fef9 ff5b 13c aa 87 c7 103 ff84 ff9d 98 10a 18f fff4 feb5 ffb1 fe67 fe21 feb8 fe4b fc75 fd57 fedd ffc8 ffad fee6 fe3c fdca ff7a ff20 ff05 ff5b bf 59 15 13 49 41 144 135 e9 ff87 fe97 ff06 fe1a fe6f fe86 fefb fd01 fed5 fe2f ffce ff1a fefc fdd0 fd61 ff18 feb8 ff45 fe44 fe83 fea6 fff0 ffc5 4f 60 d5 e1 fffe fe91 fe1e feb5 fd2d fd75 fdd2 fd8e fdc3 ffe0 ff48 ff95 ffe4 ff58 fe2e fd8c fe31 fedc fea0 fdfc fd6b fe10 feba fff1 ffde ffa5 ffd0 3c d ff46 fe5c fdb6 fca4 fc48 fc96 fd35 fe44 fed3 ff7a ffe5 5b ffe3 fc9a fc46 fe76 fe79 fde8 fe88 fdb5 fe52 fe9e ff43 ff74 fefc ff24 70 5d fe3e fe07 fcf2 fc49 fcc3 fd4c fe54 ff5d fe84 ff9c ffe0 fe96 febc fdab fd75 fecd fee4 ff11 ff57 ff20 febf ff1d ff06 fe9b fedb ff34 ff2f ff10 fda7 fd56 fcbf fc5e fcd2 fe47 ffae ffc5 ff13 fff1 ffd2 ff3d fd89 fe79 fe6e fe27 ff5c 11 3f 1f 73 8 fff9 ff34 ff97 feda fe67 ff02 fe58 fd74 fd83 fd08 fccd fe9f b5 68 fef6 b ffba 1c fdc0 ff08 fdde fd65 ff11 ffe2 a8 58 6c 5a 82 5b 3f ff78 ffed ff7f fe14 fe30 fe04 fdf6 fe1c ff67 ffef a1 ff17 fff4 ffbf 35 ff12 4 ff3f 3b ff6d 6c 15 ffa8 ffc7 ea c6 bb 42 d5 8f ff2c fecf feb3 ff13 fe8f 39 127 feb8 ff31 ff1f ffcf fff5 ffc4 3c 17a 11e 119 ffbd ff4f ff31 34 133 1a2 ff9e 36 bb 185 203 170 111 ff59 ff5e a 8f 1c8 1f ffd7 ffa6 ffcc 3e 41 ffdd 6e 27b 27a 26a 243 25a 29a 186 1a5 259 2b3 2f8 21a 21f 1c9 149 135 106 c1 fffa e2 97 54 43 30 ffbc fffc ffbc 39 ffc2 ff4c 3e 1b 3d 158 2d3 217 189 107 30e 1d3 188 14b 164 1ae a2 ffbc 3 6d ffcb 9 ffc7 16 18 fff5 3e ffbb ffeb 14 2a ffc8 27 fff3 41 6 74 6 ff3d ff59 26 ffba 15 6 ffdc ffbf 3a ffdf ffd9 2e 4 42 43 a 3 34 3c f5 101 160 15f 184 229 1f9 2bf 232 10 18a 44 169 2cd 2e7 2e6 258 1f7 f2 0 ffc3 ffbc ffbb 1a 3f c3 a0 178 f5 213 2b6 f5 3d d2 218 f0 89 119 194 19c 143 cb 167 288 2be 2d1 2b2 d8 ffad ffc2 fff9 5 ffe8 13 118 4f 23a 2a2 247 198 68 95 170 1a0 15d 1ca 199 150 fb d4 11c cb fffe ff84 cb 3d ff9a 33 fffe 43 d4 57 53 2e7 30a 187 8c cb ffe1 ffed ffbf ffd0 ab ffe1 ffb2 20 ffb3 4c 7e cb ff97 ffa4 ff05 fde5 fe49 ff2a 66 ffff ffb8 184 fb 229 fd ff4a fea5 ff01 ffc6 61 ff38 fea6 ff5b ff5e ff6b ff58 ff9b 5a 9b 20 fff1 25 51 fff3 fe49 a 86 fffa 7b ff6d ffff 1bf 37 ff0c fee1 fece ff6d ff5d febe feb8 ff3d ffbc ff24 ff2e fee3 fef1 fe86 fecc fffe e3 82 ad fe47 fe46 20 41 62 ff3c fff1 1fe fa fe46 ff03 fe94 ff6b feea fe9d ff29 ff55 28 ffaa feca ffb8 ffa9 ff46 ff51 ff22 ffc4 7 ffb3 fddf fe11 ff69 db feef fee0 8c 18f 1b ff3f ff60 ff2c ff7c ff51 fe39 ff41 2c 85 38 ffe9 48 e ffc0 ffbf ff59 ff96 fe1c fdc1 fc66 fecf ff1e ff66 fe84 fef3 47 1c1 fffb ff73 6e ff31 feba fe93 fe21 ff00 30 2a 9d fd 65 ff80 ffab ffa2 fe71 fe85 ff0b fd86 fbe7 fd47 ffd8 ff2d ff40 ffd2 143 d2 ffab ff4e ff68 feed fef9 feae feb4 ff11 c7 102 10c e2 d1 ff5b fefd fea8 fdc7 fe66 fe72 feaf fb77 fcf4 8f ff31 ffe9 fe69 1c ff33 ff1b ffed ff85 ff80 ff7a ffdd ffc4 ffd0 44 11e 1c0 130 cd ff99 ff06 fe85 fe19 ff3d ff3e fe97 fc5e fcd7 69 ffe8 ff0f fdf4 fea3 feb5 ffaf a7 33 1 152 15f b3 156 162 18f 10f 15e bf ffd3 fec7 ff49 ff77 e9 149 128 fd60 fd63 ff35 b9 ff24 fd82 fe56 fdd8 ffcc c1 24 1e 180 c0 e 3b ff8f 1b 8b 89 186 b4 6 ff38 fff4 e2 2be 82 fe53 fdca ffa2 7a ffdd fe88 fe45 fdaa c1 9c 4f 84 b0 ff7e ff95 fff7 fedf ff22 ff4a ff82 bd c1 ab e0 17b 142 10a 13a ff58 fd61 fee9 2c 50 ba fe6d ffb8 db 16 ffef 50 fff2 ff40 feee ff9d fe18 fe67 fe58 ff17 ffe1 145 1bb 18e 1ad 1ce 102 f6 41 fd8a fe81 ff79 80 c8 ffbf ffad 132 ff76 fed6 ff91 b7 fffb 80 ff12 fea2 ff0b fe34 fe40 fff5 12e 24a 166 122 183 bb 9c ffa4 fce4 fe7b ffd7 d7 ff71 1 9e ffe7 ff1d ff0f 3f ffdb 54 f3 5b ffbd ff2c ff19 ffae 74 114 1f3 31 81 13f ab feaa fdc2 fd9c ffe2 feb3 126 ffb7 148 ffde 39 ff93 ff97 ca 30 2b 126 102 9b 66 e7 a8 7c 18d 73 ff25 ffdf ff81 ffae fd35 fdcd fdf8 ffa2 e3 1e fe79 252 4d 141 54 ff34 1d ac 169 1f8 22c 120 208 20e 13a 13b 1c1 ffdb fef9 39 fede fe4c fd12 fdee fe72 fff4 fffb 12c ff12 16b 8 ffa6 ff59 ffcc fffd e4 1e9 1fc 204 19a 2a2 1f9 10c 109 114 ff8b ffaf ff82 fda4 fceb fd70 fe55 ff3b 8f 90 ab 82 8a fec6 feb6 fef0 ff73 ff68 ff78 68 af 115 ec 15c 14e 74 ffa2 ff82 feda fe68 fe1a fc8c fc2c fd7b fe1a 133 4e a2 ae f4 4b fe47 fec6 fe3e ff00 ff05 ff89 ff91 10 ff78 7a 70 f8 9 fe77 fe3b fdf7 fd40 fd5d fd26 fd48 fdce ff1b 1b7 53 ffc7 33 1f5 f9 fec3 ffbb fff9 ffb7 ff85 20 88 3a 0 45 ff7e ff35 fd17 fd0a fde2 fdc2 fce2 fd49 fd1d fdfa ff4c 3e 18d b ffed ffc5 fff3 145 b4 13 d0 bb b7 fd 73 ff72 fe72 fe08 fea7 fdb6 fc6c fc42 fd4e fd50 fd26 fe3e fe43 feb1 fef9 ffa2 ffee ffc3 30 ffc9 68 ac ff81 ff60 ffa3 ff6d ff8c fef1 fd62 fbe5 fba9 fb33 facf fb11 faf2 fbc8 fd88 fd4f fe46 fd74 feb2 ff1e ff45 ffb1 ffb5 d 47 ffe5 ffbc ff87 febf fe78 fdc4 fc3b faa7 fb56 fc21 fbe6 faf8 fa2a fb98 fc30 fca5 fcbf fc20 fd0d fd6f fd80 fe65 ff07 ffcf ffda fffc 2a ffe6 ffca 13 29 fffa ff4c fe5e febb fe1e fe30 fe49 fdcc fe60 fe5a fd8f ff26 ffa7 fe30 fe7c ff7f ff81 ffc8 ff69 ffc4 2b ffe2 ffe4 48 ffcd 2c f 3 39 35 ffe0 28 2e 2f 34 33 3 fffb 7c 1c fffc 48 6 ffde 40 fffd 1 ffce 43 ffbf ffcf fffa ffcf 44 f ffd6 ffb2 ff77 ff88 ff87 ff4d ff3b ff48 ff3d fe30 fdce 67 11d 12d febd fe5e feb5 fe7c fed9 ff59 ff9b 34 47 3c ffcc ffec fff3 ff5d ffef fee6 feb3 ff33 feb0 ff5b 17 e ff2b ff20 ffbc ffa7 131 1da 97 119 68 36 feb8 fe14 ff05 2a 48 fff7 3e 3c ffca 95 8c 43 ff66 ffbf 106 c2 ba 7b fef5 ff8e ff27 fea5 b7 c9 53 ef 86 1e ffb0 ffee 12 ffa0 ffc0 ff8e 1e 11 ff4d c5 2b ff94 94 15a 1fd 19d 238 310 2ab 220 e9 156 171 1e4 15d 1f2 dc dd ffed fff1 4d 153 1a6 91 fff6 ffb9 ffea c3 80 72 5d 13 f0 ff7c 12e 214 207 193 120 7 f1 13b 1d1 172 13b 120 a1 94 36 34 1d8 2a 3 21 ff26 fefd feb7 ff8d ff78 ff89 7 4 6c 11d 101 152 106 6d b6 99 34 a3 168 cb ff46 0 25 d1 167 df ffca ffe6 fe06 fde8 fde4 ff19 ffae ff25 ffa9 101 ffde 2a 40 90 85 5e 42 68 ff2b ff36 3 ff52 ff64 7c 6 fee5 216 d1 7c ffc4 fe74 fdd1 fe46 fe4f feba ff7b ffc1 10 fffb f 11 ffff 19 ffc3 ff46 ff4f ff1d ff33 54 ff5a fef3 fffc 5 51 3f9 200 124 ff61 fe9f ff00 fe96 fda4 ff35 2c 25 55 44 8e 7c ff68 ff27 fea6 ff11 ff76 ff75 ffd1 1e ff64 ffeb 3d ff9f 154 350 320 15 ff63 ff1c fe44 fdb1 fe68 ff33 ff93 fff6 6a ffdb 80 b9 9e fefd ff86 ff71 ff74 ff96 ffff 41 32 ff54 feb8 febe ffac 2b7 33f 87 feba feed fd9c fd9f fedc ff77 ffc3 ff8f ffdb ff61 16 45 f3 1d 102 13c 144 40 8b c6 ffe6 ff10 fdc2 fe6b fffd 2a3 2a5 19 fff3 fec1 fdcc fdd0 ff77 ff45 fec5 febe fec3 ff59 79 11b 1c8 1da 2c0 20f 9e 1c aa 17e 5d ffbf fe7a fd6c fd6e ff6e 163 28 b4 fe1e fdfd febd fe81 fe9e fd85 fe93 ff31 ff9d ffbe aa 1de 2ed 2f8 22d c8 94 84 b0 16 fec4 feb4 fdea fd45 fe7c 15c 1e 90 ff2d feec ff35 fe96 fcc3 fd41 fdb8 fe43 fe68 fe9d ff4b 4e 1be 244 ab 9f ffce ff4a feb1 feb0 fe73 fe3b fe6e ff24 ff4a 232 ffd8 69 16 ffaa 1a ffba fdc0 fdfb fd4a fd33 fd96 fd0f fd37 feff 15c 100 ffbe 1b fead fec3 ff50 febb fedb fe66 feca 63 e6 176 8 ff80 67 ff51 153 a1 fe38 fe8e fd08 fd10 fcf7 fc3f fb8d fde2 12 12 ffe3 10 fed5 ff68 ff61 ff44 fff4 ffc9 86 16e 193 2f4 ffce 9 ff31 ff5c 189 1ba 9e 76 fe89 ff38 fe43 fd1d fc1b fd63 fec2 ffa8 36 6 ffa5 ff8b ffe7 49 84 fff3 3b 108 6a 1b2 186 fff5 ff43 ff40 1c6 252 258 143 ffec fff2 16 ff5b fe40 fcaf fecf 22 50 57 31 ffcb 57 12b cc fff7 86 1d6 143 9b 10b c3 ff25 ff7d ffc2 1f6 232 1ea bd 34 79 13 fe83 fda7 ff38 31 e7 19d d1 ca 85 127 df 47 12b 1af 208 199 e4 ffcc ff8f 11 7 1bb 29d 23b 102 113 9b 82 1e feed ff12 ff86 9e 1b7 1bf 150 114 105 8a 17b 1a8 13d 143 159 9c 84 ff53 76 ffe4 156 24f 2b6 171 79 e4 a2 60 ff56 ffdd ffff 4e fffe 9e 15c a0 a7 92 c2 19f 1e0 206 79 ff66 c5 ffef fffc f6 1af 73 194 ec 62 38 a ffd1 ff7d ff69 ff97 fea6 ff9f c2 a4 2c 66 63 b9 1f7 25a 26f ca ff44 fffd ffd5 18b 5f 102 17 fede e 125 c a0 fff1 1c fff5 ff22 ffb9 60 fff4 57 b2 111 197 1e2 3a6 275 1d4 12a 1c ffbd 40 5c ff74 fed9 fe9f fef0 ff98 3d b7 65 d6 82 ff6c ff3a ff93 0 ffd8 111 124 5c 136 1c5 2dd 149 ffef ffa4 48 ffce ffed 90 8c ff76 ffbd ba 59 ffc0 1e4 1ac 62 90 118 e3 e6 7a ac 8d 16 ffe1 ff88 ffeb d4 68 ffe6 ffd0 ffff 6 ffe2 48 7e 1e0 8b 42 1ef 134 1a8 177 f8 43 ff34 19 104 f3 ab ffee fde6 ff3b 6a ff57 44 11 ff80 13 ffd5 45 7 ffee f ffb4 ffb0 fe61 ff28 fea2 febd ff59 1b ffab fed1 140 74 ff2f fe00 fe26 feeb fea2 fffa ffa6 ffd7 ffe4 fffd d ffdd 8 1f 3c 40 ffe7 2d 18 ffff fff8 32 ffc4 41 ffd7 1a d ffec ffd4 ffeb 3e fff9 ffee ffee 11 ffee 1e 6 ffcd 1d ffc2 37 ffed 34 ffc3 14 c6 63 a2 fffb ffd7 fe90 fee8 fdb3 91 148 ff18 fe1c fdb1 ff15 ff2e 2b 72 43 34 fff7 34 ffc1 9 ffd0 ffcd ff65 ff4b ff29 ffef ffe3 ffc3 5 67 fe7b febf ff2c ff40 96 fa ffba ff6b ff1f fef6 fefd ff1c ff87 3 60 3e 34 ffb8 6 b2 ffbf ff0c ffef 69 20 e7 15a b6 ffe4 f6 81 ff10 0 a ffe1 24 61 42 118 ce fea6 ff14 ffce 31 ffcf fff0 ffca 34 d5 ff85 93 f0 b2 e3 101 14c 105 11c 42 13 66 5d 54 2e ffe6 ff15 ffcd ff8f ffa2 4d 147 117 7a ffc6 17 feb0 c1 d1 171 d7 ffb6 ff17 ffa6 ff40 ff8d ff5a ffa0 ffa6 5 2c ff1e ff4a ff33 feae feac fef6 ffa7 ffe1 16d 319 d2 2b 64 4c f9 12 ffa5 ffeb fe65 ff13 ff85 73 ffe4 ff4b fe50 fe3b fe39 fe08 feeb ffb1 ffba ff77 ff79 ff03 ff89 114 1c2 36d 182 42 1e7 ffeb 3f ffbf ffd8 3f 2d fff0 ffd1 c6 ff6c ff89 ff23 ff0a fe3d fe61 ff37 ffe0 9d a0 fe 69 fffc 43 119 27a 23f ffb6 15b ffc4 ffbf 2b 7e 98 134 138 a5 121 94 e3 81 f5 a1 fff6 14d 169 1f1 1e0 172 192 14c 1b9 26f 28e 1a0 b6 181 fffa 6d 212 197 1c0 218 1bd 1b8 25e 2c1 2ce 338 3a6 2bd 198 190 99 4e 92 b8 114 14f 242 31c 2a4 118 73 164 59 98 1eb 1c7 212 1a6 1fe 2d5 336 3d9 3ff 5c2 4c7 232 7e ffc7 ff7c feef ff1c ff20 fee3 fef7 77 223 304 187 11f 93 1f8 ed 23e 190 cf f8 81 1ab 254 2bc 356 4bc 2e2 11 fefb ff2a ffb1 fec5 fe81 fd1f fd51 fce5 fd0f 9e 27e 12f fc 17b 223 20 41 b7 ffb5 ffcc 21 5 5e ff60 ffba ff9b ffb7 fe76 fddb ff3f 5c feda ffd9 fd8b fd0d fcb3 fc1c 4a 20e 166 e8 17e 203 ff77 fe6d fe74 fe69 feb5 fe6f fed1 fd5f fd0a fcf2 fdd9 fed1 fe0b fead 55 0 ffab 125 ff7f fdfa fddf fee8 31 202 3d 40 1b2 23d ffad fcc0 fba6 fc4f fc51 fd6f fe10 fe76 fced fd68 feca 1 ff95 ff9a 76 a9 63 ab e4 ff82 ff7a ffcb ff37 29a 9f b4 aa 1ba ff8c fd03 fbc6 fd58 fc44 fd1e ff41 ff44 feaa ffad 21 2f ff5b ff8a 1a 53 b3 9e 25 ffa5 ffde 2b ffe1 169 129 82 15d 1ef 1b fda7 fd25 fe09 fe03 fe65 a 20 fecb ffbe d6 29 ff88 ff4e ff85 ffce 85 3b 5c 15 19 133 67 1b1 164 fff4 9c 1eb 162 ff30 fea1 ff66 ff61 40 ffb7 ffa4 fef4 ff34 ffc7 69 0 ff21 ff6e ffe5 0 ffd7 5a 94 63 ffeb 1ef 2a6 e1 91 34 153 25c 44 ff56 13 ffb3 ba 9 ff0a fe83 fe64 ffb1 56 84 ffa4 ffec ff6f ffd6 ffd5 c5 109 5 ffe9 12c 11b dd 6a 90 31 cf 91 ff60 37 50 1b0 cc feeb fed4 ff4b 3d 6f 89 5 ff97 28 91 fffc 62 2e 65 f5 16a 60 6a fff4 28 98 7c 33 ff 142 d6 e5 73 ffaa ff47 ffa9 46 ffe9 fff3 fff5 81 a3 ce ffd8 19 183 16d 9b 1c 6 3 ffff fff7 ffc5 ff9d 110 11b 12c 72 68 b0 ffee ffcc 51 8d 39 ffb4 ff83 3a ce 46 f 6e 6a 94 dc 118 ff0e ff8d 21 37 fede fff7 164 1c4 fe 1b fff2 cd ffb8 ff85 ffde ff4d fff0 63 29 3d 33 ff0f ffec ffb8 6 185 1a3 ffdd ff54 fff0 5 19 bc 16 171 188 ff9c ff89 ff1d ffbb 93 ffd8 feff feb3 ff67 1 22 91 ff2f ff4d ff8b ff48 8d 1a0 184 fed5 ffe2 48 ffc9 3 102 12f d6 fa 13 ff8c ffe4 39 ffc6 39 ffc0 d 13 c ff78 12e 40 56 fff4 92 ffb8 6a 151 31 168 a 17 fff5 ffb3 7f fc 105 213 1c6 2c5 1a3 fb 115 2c6 233 1c3 22f 2db 211 1aa 2b4 186 142 162 1b8 1e6 22 b1 3b 5 ffd8 fff8 ffb7 fe94 ff67 2d 8e 1bf 2ee 178 284 1c8 31d 28b 277 244 24a 28c 342 e7 90 f5 17a e 69 43 ffe2 4 ffcd ffe6 ffee 109 19b 177 126 18a 74 23d 10b 6e 2bc 20e d4 90 14f 142 c8 7 66 108 b9 ffc6 3d ffe3 fffb 7 3d ffe4 ffd5 3e ffd8 fff6 ffea 2e ffce 38 3 9a 11e 38 68 10 43 35 38 ffe8 27 fff5 5 ffc7 ffe7 ffce ffcf 45 ffd4 fff5 14 65 52 104 bd 1be 23f 273 247 25b 327 1ad 2ce 2b4 29e 34e 257 227 1ff 16c 12 23 48 18 ffd1 ffc3 ffef 55 6d 13f 11b 199 274 237 14c 20f 32f 2ab 106 135 dd 254 20d 22a 20d 27a 270 216 245 c0 37 ffeb 45 19 ffed ff69 16f 1ce 197 155 17d 203 200 205 2df 378 40d 1de 13d 14c 150 216 1ba af ffe7 ff70 c8 101 ffe3 97 ffcf 14 ffed ff1a 6 10 7e 43 a6 14a 209 23f 1ed f0 cb d0 153 230 1cd 207 134 2b ff81 fe94 feb1 fed5 ffc8 d3 a5 fff8 33 37 76 ffb3 fe55 fef3 50 ff7c ffa9 d7 ff87 ff02 ff1c ff3a ff55 3b 136 10f 117 13a 103 ffc3 febf ffe7 58 206 e1 17 75 fff4 feba ff81 ff26 ff4f cd fff7 ff60 ff54 fef1 ff20 fed9 fe7e fe70 ff05 ffa8 ffee 1c ffd7 ffbf ffab ff4d c1 a3 8 1ab fffb 2e ff1f ff10 ff8b ff25 ff0e 2a ff9f ff5d ff79 fff9 ff4e ff6f fff9 ff8f ff68 ff6b ff6a ff8c ff69 ff63 ff5a fff7 87 83 ff78 220 52 fff2 ff7e ffb1 fee5 fef5 ff58 ff4c feee ff6f 6b 56 9c ab 90 6b 13b 10c ffff 4 69 ffc4 ffd3 37 2c 46 91 11a ff45 fe38 fec0 ffdd ffb1 ff48 ff47 ffbf ffed ffb2 1e ffcf ffb1 ffe2 c7 b4 184 c7 ff6e ff83 ff9a ffb0 fffd 32 1ca 15d 16 ff81 ff9b fe9c 12 11f fffe ff64 ffea 9b 5c ffda ffee ff7f ff85 d d7 75 ac b5 ffea ff32 ff6b ff66 ffdd 229 325 bc 10b ffaf fe86 feb8 fee1 14f ffff ff5f ffcd fff6 ff8e fef8 febf ff53 ff43 ea 78 ff1e ff16 ffdb ffd0 ffd5 ff18 81 6a 17a 31e 15f 161 ffcc ff2a ff07 feb8 5e ff1e ff4d ffae ffb3 ff25 5 ffdd 1d 11 f1 35 fe6e fec7 ffb4 ffdd ffae ff99 ff9b ffae 4a 166 c7 ff6c 0 9e ffb1 ff05 100 feae ff3a 25 14 97 d3 4a 6d c2 dc c fe60 fd97 fe96 ff85 ff99 fea8 fefb 2c 175 1cc 14e 101 130 a3 ffbe ffe9 ffb9 fdbf ff93 7 71 90 eb e3 fd d6 12c ffd3 fe6d fd97 fe08 fedb fe68 fede 2d 20 9f 25a 166 78 74 3e 8 45 fee1 ff3d ffab fff3 ffd3 ffa3 58 91 db 1aa 17b 31 fe78 feea fec8 ff1e fe9c ff9d ffa8 ff7a 30 374 1b4 ff21 3a ff25 b8 f3 16c ff5a ffb2 ff22 fe78 fe68 86 129 172 103 123 bf ff6f ff66 ff8c ff2c ff1d fe90 ff42 fffa 179 311 2db ff ffa2 ffe4 c 5d 1d3 ff74 ffa8 ff64 febe ff47 ffb6 67 64 ff3c ffb4 ffa1 ff2b 2c 28 ff44 ff2b fe80 fecc 3 8d d0 146 ffb4 5d ffd4 a5 ff5a 144 62 1f 45 ffe7 ffaa ff3e ff66 fee7 ff4b ff17 ff01 33 af 147 ffde feca fddd feb4 41 129 16c 1aa feac ff60 28 ffe3 ba cc ce 13 91 3b 95 12d 12b d8 1ae 115 3b 146 db 1e3 e2 ff5a ffd5 99 233 254 166 146 fe9a ffb4 ffca a1 171 274 1fc 19b 14d 146 158 25b 31d 32b 343 2c5 212 1d8 104 174 1e7 135 14e 1f6 20c 13e 61 15a ff1e 5d a2 40 1c8 337 18b 33 1aa 24d db 17b 243 342 33d 371 2cd 196 115 157 25b 197 1e cc 103 41 ff94 fc 12d 28 5d 1b 172 2db 121 e1 155 f1 a0 dc 138 23b 1bd 27d 14b 205 1b4 176 1be 9d ffa0 ffaf 50 ffcf ffa5 b5 10c 2f ffe1 18 245 28c 191 ca 12 ff7c 64 91 33 a0 65 33 6e 15d c2 3e 95 ffb0 fed3 fe87 ff20 de ffc4 cb 102 13 20 ffef 86 ca ff06 fe72 fea8 feba ff61 ff50 fdc7 fdba ff4a ff2b 52 4b ff99 ffc3 ffc0 fe28 fdef fe73 fe57 ff6d 10d 7 44 28 ffc5 ffe6 60 ff5b feb0 fd9c fe81 feec fe79 fe02 fca4 fcd6 fe76 ff70 fef0 ffc6 ffae ffde ff08 ff75 fe2a fd31 fe13 ff97 c4 57 58 11 ffea 1d 1d ffa9 ffc7 fec5 fdc8 fdf7 fcd6 fc50 fc46 feb4 fe75 fed4 fedb ffc2 30 ffd6 fe29 fe07 fe35 fe41 ff66 ff93 ff84 ff7d ffde ffbb b ffbd ffe2 a ff76 ff17 fdaa fd39 fe16 fdad fef3 ff89 ffb9 ff39 fe86 fe09 fcba fb92 fe4b fed9 fef0 fedb ff6d ffdf 30 fff3 11 ffc3 23 fff9 ffdd 30 ffd3 1a ffe8 ffcd 2c 28 ffbe 0 37 3e 78 2f 3e ffec 9 ffc8 ffcb ffc6 11 3b ffe5 37 a ffd0 23 2b ffc5 33 c 3f 85 36 8f 8e 14c b0 8e a5 198 2a5 1a1 131 1ad 18e 15d 90 da 36 fff8 16 2c 46 3 21 81 55 c7 85 be 98 1a1 123 ba f2 197 29f 3c2 45f 399 23b 193 2e2 264 391 33e 21c 13a 2a 42 ffd8 14 ffff dc 11a 8d fee0 ffd1 ffa3 ffa0 ff77 ff05 fe13 ff10 ff6e ff6a feea ff08 fee1 ff57 a1 ffb8 d5 179 281 9b ff40 ffed 42 fffe ffe8 53 ffc4 fe38 fdfb fdd8 fea4 fde5 fe1a fe24 fdcb fdc2 ff04 ff60 ff02 ff52 33 50 1a 14 74 ffd5 80 fdfd ff43 95 fd 37 0 3c d fde8 fd47 fd24 fe13 fe78 fe6c fe22 fe17 feb8 ffb8 1d 32 2d fa 109 127 105 1d9 a7 ffbe ffc5 ff37 86 97 ffc7 a ff78 fe85 fe49 fd75 fdbe ffba fe9c fdda ff02 fff3 a0 20 3e ffda ff80 63 83 142 c6 c6 66 ff9d ff6b ffe7 ff3b d1 4d 3c ffef fec7 fdff fe74 ff60 ffa2 fe4c fe55 13 46 df 3c b ffab fff6 fff3 aa 8f bc c8 10c 84 ff95 ff74 fed4 84 56 126 134 10b fea6 2 bb 91 fe9a feb3 ff8e ffb1 13f 135 a3 5c ffd6 c3 ff56 4a e0 92 27 f1 fffb ff12 ae ba 66 116 1cc 1c0 ff32 ffc9 8b 85 ff78 ff0c 11 63 15a 1f8 17f 2a ffc2 0 ff47 ffb0 ff5d 75 46 58 105 10c 10d ffc5 61 1ff 22c 17 ffdc 6a e1 b2 2e 6d ae 125 12c 213 237 ae ff5a ff3c ffa6 ff7b ffed 61 ffd1 12a ea fef3 7e fff7 32 232 38 ff47 ffa0 3b 1bc 1b6 6a 6e 23 4 39 127 11e ff56 fd87 fd9e feb7 45 ffa9 ffe9 32 171 1a1 51 ff49 173 fffb 105 144 ffa3 fea5 69 232 202 da 101 ff53 ff20 1a 4a 1e fe4f fcdc fcee ff19 ff82 ff32 fef5 ffae c8 232 106 18 21a 95 118 185 fff1 feab 11 118 64 81 ffc2 ff49 fe82 ff32 ff6b ffcc fec3 fd61 fd36 fe95 febe fe13 fd51 fed9 c7 1fb 193 e8 116 4e 84 141 ffa2 fe12 6 7 ff54 fec2 fedb fe95 ff23 ff79 7b 0 ff27 fd92 fea9 fe71 fdb5 fcd5 fd19 ff47 a0 27a 18c 16b 13f 2b ffe3 ffae 17 ff9b ffe9 ffa5 feea fde3 fe3d feb3 94 1e5 16c a7 fdcb fe8b ff67 ff9c fdab fd9b fdad fdc8 ff18 200 18e ff39 ffe6 1e ff78 3f 76 ff53 2a fe4c fd92 fdc0 fe73 ffde 16f 16f 1a0 43 fede ff53 fea7 fe3d fdb0 fdbc fe65 fe3a ff2d 10e 27b 127 ffd2 7 8 ff26 8b b ffb3 fe1d fc90 fd31 fef0 130 240 1b4 2b 66 ff89 ff78 fe72 fec2 feb4 ff6a fede ff2e ff64 1c8 272 12a b3 21 15 ffcb ff9f ff80 fede fded fd4a fdba 54 196 105 c6 41 ff85 ffc0 ff01 ff22 ff43 ff9e ff50 fed3 fea8 ff24 fb 1ab a2 a4 b7 9d ffe6 ff26 ff16 fdff fec2 fe49 ff05 ec 1c7 1bd 11b 9e ffa6 55 5c 4 ffd4 a 30 fec0 ff28 2 17e 1da 1c2 d7 fff4 57 ffe3 ffc3 ffc7 ffb6 34 ffd5 75 cc 204 259 299 cf da 126 62 a1 b5 98 44 ffcc 3f 8a 10c 1f6 186 d0 6b 34 ffc6 f0 1f 75 b1 28 1c e5 af 159 198 126 17c 187 6c 5f 10f fa cd 120 1d6 130 216 1ab 1f7 d 90 2 b 12f e9 163 fff0 ffab ffe5 b4 2c 10c 1bc 155 16e 18f ec 5a 14c 156 c9 129 fa 14e 171 fc 173 43 ffcd 24 fffb ff38 70 cc 7d ff36 ff68 38 84 11b 1d1 1ba 1a5 213 1a3 fa 1a5 274 ec ff4b ff83 117 108 7f 1bd ffff ffdc fff0 ff7c fe89 fdc1 ff2b fef8 fdd6 fe07 ffd2 ff78 4a 79 39 77 8b 5d 8c 27d 236 c5 ff4d ff0c 26 197 10d fd ffe9 2 38 ffcf ba feec fd2b fed2 fe01 fd9e fd9e fdca ff4b fed5 fe43 fdcd fec1 fe60 ff67 9e 6b ff7c feaf fede ff56 bd 34 4b ffef 2c f ffb9 ff8c ff87 ff9c ffce ae 1cd d6 ff03 ff77 ff20 fed7 fe6f ff23 feb3 fe46 fee7 6c ff18 ff31 ffe4 4c fffb 56 2d ffe8 ffe2 48 48 ffcf 129 141 284 219 26a 118 147 102 129 284 230 191 57 6 ffdb 55 10e 58 12 ffef ffcb ffd9 ffce ffdb 37 1b ffc9 ffe3 ffcb ffbc ffe0 1a 8 32 a fff3 a3 85 37 ffd2 ffdf ffeb ffcc ffb8 ffe4 fff9 ffd8 ffbe ffde ffc1 ffc6 3b 48 33 13 6 a6 92 17b 136 196 f6 272 295 205 22d 100 143 ff7a a5 2ab 249 2bd 1f7 173 12f 13 45 ffce 1e ffdc 1d 4f ffb9 b9 193 296 2a3 2f8 1b4 1fd 25f 207 295 430 369 27f 1be f3 14c 1e0 24b 24f 196 d6 3b ffe9 ffed ffbe ffc9 dd 4c d7 14d 1f9 2a9 21a 185 1c4 100 fc 129 9c 148 11e e 32 110 ab 47 35 12a a7 12 62 39 ffd0 5e 144 f3 2e0 232 1e4 e5 1ae 105 a1 fff7 fff6 82 fff6 fefe ff57 ff54 fed7 3b ffa2 ff01 fe8e ffa1 fff8 38 112 a8 2e ffe3 172 119 1f3 2ac 304 225 1c5 c9 ff42 ff5a c3 d1 ffa9 ff4a fe31 feb0 ff54 ffb5 ff70 ff7b fe86 fedf 89 58 57 8 44 ff9a 30 162 17f 177 1b2 136 b3 82 2a 92 65 ff5b ff76 fffc ff98 bc e8 ffe4 67 70 fea8 ff2c ff75 5c 55 ffe7 4e bc c0 19b 13e ff8f 1d 109 ff83 fff8 ffa2 fff1 ffa7 ff69 ffc7 40 ffd5 42 123 198 124 1b0 80 9b ffb8 ffe7 e6 a8 2a 182 132 e6 104 15 45 11e 92 ffc3 ff83 ff0b ff6d 25 49 ff94 feaa ffc7 8d 12d de 128 122 9c ffef 2c 17b ffee ee 216 67 f b4 ff8f 2c dc fff2 ff1b fe70 fecb ff48 13 fd 28 ff10 fed0 fefe ffdb 56 153 c0 9f e1 d1 67 ff4a a6 256 d2 feec 190 ffc7 8 90 4 ff80 ff89 ff20 fefc 6e 52 ffab fef1 fe65 ff01 ffe7 ee 11a 13b ff 54 fe5d fe34 5e 1a2 62 18f 107 1fa cd 24 84 8b 2c 78 4b ffbc e6 f9 1f feea feb8 ffb8 ff9d 1ce 11e 132 160 4f fe04 ffec 166 93 1d6 162 20e 283 172 6a 56 5b 39 23 ff63 fefe ff39 98 157 99 82 bb 7a 137 183 23a 311 51 fed0 ff02 14e be 1b5 1e3 17f 226 128 114 ff74 4e 6b ffb0 ff71 fe50 ffde d1 1c6 1ae f8 1f 7e 106 1a0 1b8 1bd 1f febf fdc5 1b ff56 c5 298 216 ffc1 f8 fff0 fef1 ffb3 ffcb ffa2 ff9f 5d 16b 290 20b 165 6f ff88 53 ff34 ffaa 76 1c2 ffc3 ff63 fd97 ff7c ffe6 ffc4 11a ff4c fda3 fec0 ff4e fe6a febd fe22 fe8e 7a 144 240 2d4 1aa 71 ffa3 fecf ff3f ff6b ff15 ab bc ff7b ff73 fdbb ffb6 3f df a5 fe63 fd20 fee5 a9 ff50 fedf fe7e feae 49 a3 169 296 1a0 112 fef3 fee0 ff3a ff5f ff3d ff2b fe01 ff35 fe23 fe38 ff03 21 b1 80 fe6b fd70 fec1 fefe fefc fe52 fdea fecd ae 16b 1da 27f 1e5 61 ff13 fecb ffbf ff84 ff74 ff8e fe75 ff6c fdd1 ffd0 feba 194 a1 175 fde6 fccf fd44 fdca fdca fd58 fe22 ff98 40 182 240 1da 104 feff ff67 ffef ffee fc ffe9 fea2 fc92 fce8 fea4 8c 8 6e b2 51 fdaa fdd1 fcce fe2c fe59 fe37 feca 29 ac 155 182 15f 4 ffbb ffc6 52 f9 55 ff0f fd99 fcc7 fe5c 27 ff89 eb ffc8 ffab fec8 fd7b fd5b fc99 ff10 ffa1 ff22 ff0c fff5 50 108 81 b6 21 ffc0 ffe6 16 37 fedd fec7 fdc0 fd31 fe72 ff6a ffe4 77 76 5f ff61 ff38 fed3 fea8 fff6 1d ffee ff58 ffa1 ff9b ffc3 99 b1 1b ff1d ff78 ffcc ff84 ff2a ff01 fcfb fc78 febc feae ff13 24 97 15 ff15 fea6 3b 138 fff9 15 fffb fe9a ff24 ff39 fed4 ff5c ffc2 8 ffd2 26 82 ffd9 ff6c fe1e fcca fd8c fead fee5 ff48 ffc3 1c 34 fdf5 fe03 a4 4a d9 61 feea fefb fec8 ff3c ffe2 0 ff92 77 bc a8 15 25 ff3a fe70 fe46 fe5a ff02 ff05 2c ffdf ffc6 ffef 59 ffd1 7 159 16b cf 2e 1d 72 82 bb 5b 4f ee 65 ff3e fe98 ffdb fffa fedb fdf5 fe43 fe6c ff5b 48 fff4 34 38 fef8 8d 77 1a 10c 174 17a c0 3a 40 87 ff06 8b ffd6 ff10 ff3d ffa8 da ffe3 ff5f fef7 fec7 ffae ff88 ffc9 2c ffb9 fffc fffb ffe5 fe96 ff42 ffde 1a3 1e4 243 78 5a f ffad 46 5c 84 150 297 28d 1c1 ffe0 ee 50 ff33 ed 41 2 10 1d 1e ffd6 127 1d2 193 16f 1e1 1de e1 17 ffd9 141 245 106 176 2a4 25b 191 10b 7a 6c 3 40 1b 41 a ffbc ffd0 40 fffc 0 ffdc ffc0 48 fff0 2c 25 fff5 3c fff4 ff8b ff69 2 ffc2 ffe6 fffd ffeb 16 20 2b 47 ffed 39 22 ffd1 ffd2 ffde 17 2d b5 ee 141 1cb 1a3 20b 1f9 273 2a1 2 c0 76 227 30d 281 2dd 275 1d2 d0 40 15 45 12 ffe0 fff7 47 e1 141 f5 20f 269 14d 5b 10c 268 8c ff2c ff2a feee 30 15e 14f 137 141 25a 291 22e 78 13 fffe ffe9 ffde 1f ff95 113 16c 1da 1cc 1b8 d9 49 e5 117 c5 15d 180 d0 165 174 1d5 167 196 df 101 167 4c 52 ffc7 ffd5 b 1a ffe5 16d 2a3 28c 118 41 fff8 36 b6 64 ffea ff9a ff82 6a 6c b6 125 ffe6 fffb 1a 96 ffa2 fde2 feb8 fed7 ffa1 fff3 ffca 86 4f 1a3 1d8 1e6 c5 54 3b 9e 4d ff80 28 ff74 ff12 ff2d ff3d ff74 ffda ff83 fe21 fdf9 fe26 fe2a fdda ff65 ff80 44 ff89 ffbe 23 0 34 d ffab ffda ffe4 37 47 ffe7 31 45 41 26 8 fff0 ffc2 ffdb ffb6 fe94 fe09 fe4d fd3b fe70 ffee ffbe ff41 5 11 ff0b ff93 ff04 ff68 ff77 63 4b ffd3 4b c3 10b 11d c8 115 bb fff4 ffe6 ff43 fe27 fe81 ffb5 fdc0 fd01 ffb1 5c ff44 64 ff94 feff ffaa feee ff36 af 48 ffab 54 f5 d8 14d b4 e7 fffa 45 11 fff6 52 ffb5 fed2 4 fd92 fcc5 ffe3 ff34 ff26 3d a1 2d feda ff55 73 ef c9 3a c5 da fd 78 ffc0 fef4 ff63 ffe7 ffc1 47 ff8f fefd ffe9 7f fecd fd7d b8 ff69 ff12 ffb2 ea ffb9 ff98 26 f8 15b 148 90 6e 46 c3 ffb0 feeb ffe3 ffe4 5d ffd8 80 ffb1 92 f5 74 ffee fe9b ff9c ffc5 ff66 ffc6 ffed 6 ff90 8d 196 143 d4 a4 3f ffd1 ffd1 ff87 ffe8 88 1c2 13c a1 1b4 112 11b 1db 91 fdc3 fe3b ffb5 85 ffc6 ffa4 53 121 5f 1b6 147 68 39 87 1d ff04 ff69 32 c4 fb 193 17e 10e 10d d1 261 32c 63 fd82 fd0e ff16 ffd0 4 ff86 4c 270 43 137 179 5d ffeb 2d fed0 fea6 ff8f 69 ffa9 84 a6 d6 bd ffd7 159 1bd 262 17 fe17 fc78 fefd ff5b ffe9 ff84 ff7f 84 102 11c 139 78 ffe4 ffc1 ff59 ff62 ffeb ff49 ff64 ff43 ff9a 69 2f 12d 1be 1f3 250 123 fead fc3f fe62 ff1f 18 fe6e fe40 54 111 ee 156 ffb3 ff5b 1f 3e 4f fefe fede febf fdf6 ff37 5 26 17b 22c 28f 25e 134 ff7c fd4b fe54 ffe6 8c 4 fe98 42 187 e3 108 ee 84 140 114 ff70 fee2 fe49 fdf1 fda3 ff4b ffa9 d 16c b4 1cb 109 9d febd fc79 feda ffc3 89 18 ff8a ffce ad 51 133 d8 10f 16f 123 ff9e fe98 fe4f fdfd fe6c 2f 51 108 9d a7 1fb 1ac 69 fe41 fd86 ffe3 e7 6a 140 ff65 ff93 ffb6 7c cd 41 b8 14d 108 ff3e fe32 fe23 fef2 ff90 bc ff 19f bb 57 af ffcf fe22 fdc2 fe16 fe8a ffc5 aa 10e 59 2e 3 fffe ffde fff9 fffc ba 64 6d fe99 fe55 fef7 2d 114 114 193 86 16 ff86 fe67 fec8 fd6d fd88 ff30 ffe6 de 17 ffda ffdc ffd5 ff2e ff85 ffa1 ffef 29 ffb7 fffa 2b fffa 28 5c 14a b3 a9 ff57 fef3 fe55 fded ff54 ff28 fe60 c ff7a 98 ffa5 ffaa feed fe4f fec9 ff49 ff1a fea3 ff64 ffd7 f2 a7 ffff e2 1bb c0 ffda fffa ff50 fe4d fe83 fdba fea3 ff1c ffa3 9d ff56 1e 1a ffe4 fed7 fe26 fe13 fe4a fdd4 fe6b febc ff9e c8 d3 12d 197 1c5 136 ffe5 8 ffa6 fe44 ff80 fef3 fe72 fe04 fee0 c3 ffd6 ffcc 13d 84 89 ffdd 35 ff5e fe78 fdf9 fe85 ff15 ff46 23 79 49 5 5d 2b ffa1 ff8b ff36 fef2 ff03 ffaf fdea fe86 ffb8 ffd8 38 bf 19d 3de 2e0 195 161 d7 30 ee ffb8 ffbd ffec ff42 e 5a cb ff7b ff34 135 f ffbb 39 ff43 ff03 ff59 42 3b a e8 36 1e8 323 200 293 2df 34c 220 1d5 10f f9 ff98 ff8a ac 49 39 f4 10f 186 d7 57 9 ffb8 ff79 ffdc ffe9 4 37 46 149 17c 1fd 236 203 222 2da 282 26d 2cd 381 17f 231 2e3 290 1aa 27b 187 fffc 2a 86 ffb0 ffc2 1d fffe 41 ffd5 38 ff4f fea4 ffea 29 ff9a fff8 74 95 99 ff6b 18c a5 c0 d2 13e 157 42 ff53 fef4 ff26 ffc8 ffc0 ffe2 ffdb ffc6 ffd6 44 43 23 14 6 ffe2 fffe 15 11 34 89 76 4e 17 fffb 3e c ffce 8 ffcc 1c ffd8 9 2e ffdd ffca 8 2f ffea ffec ffff 77 16 a 83 49 15a ed fb 69 1cc 2ea 2c2 161 255 236 272 174 12c 111 ffe2 1d 22 fff4 25 46 3e 53 c0 113 187 163 fff4 92 217 25d 262 2f1 3a2 390 273 169 260 10d 1bb 3ab 346 1d7 a7 30 ffde ffd6 ffc7 2b a7 fa 12a 6c 3a ffb1 ff42 fe97 fe2c fd75 fee0 ffe3 fee5 feda ff77 ffe5 ffe6 b fe3c ff52 ffe3 f6 fecd ff1e 1f 1d ffdc ffcb c0 b2 ffb9 fdfb febc fdc8 fe2e fdee fe71 fe94 ffd0 45 44 7d ed 137 be c5 fff7 fe67 fe3a fe80 fd88 fe38 a 16e ffbc 48 176 3c ff05 fd7e fd9e fd7f fcc0 fc49 fd12 fe9b fe87 ff12 ff74 ffde ff8c 50 d7 183 1 2d feda fe1b ff07 ff14 ff75 73 fffb ff71 ff56 10 ff1e fced fe27 fdd6 fd28 fc9f fcd1 fe0c fe58 ff56 2e 115 132 185 139 96 fffa 29 fef7 fe80 fdaa ff83 ff96 24 1a fe87 ff00 ff80 fe58 fda5 fd43 fdb5 fcc1 fcab fd9d fe66 fff9 b6 117 173 156 a4 26 24 61 102 3c ff6c fdf2 feec ffc8 ffdc eb fe99 ff05 ffbe ff4e fe6e fdac fcc6 fcfb fddc ff81 ffde 12a 218 145 2b fff6 ff36 ff19 ff38 ff2e 7b ffe4 ff14 fe4b febd e1 ff32 ff82 fe70 30 ff8f fe4f fd73 fd9d fc8c fd5e ff97 155 a1 7b be d9 57 ff76 fe78 fe0e ff24 feb3 fed9 ff4c fef4 fe8f feb3 fedd ff3b ff10 ff7c ffa3 fe8b fe61 fe43 fd93 fd51 ffae 5a e8 93 67 1c 199 119 1 ff3d ff17 0 feca fe8e fe01 fdc5 fd7a fd22 fdca fffa ff21 ffcf fef3 fe3e ff0c ff5b fe9c 27 4b fff6 a1 4d ffc0 12d 20b 112 4b ffab bb 99 38 feeb fd5d fd49 fd1f fe48 ff96 b7 ffca ff74 ff02 ff0a 1ae 1a7 85 6f 59 b2 ff75 ffd3 ff4c e7 246 1e0 b0 be 126 127 1e ffba fe43 fe19 fd0c fd9e ff8a e8 9e ff50 fefc ff19 19a ffe6 ffa3 c4 4a 1e ff86 ff4c ffec f9 1e7 209 11b 4b 110 f7 ff92 ff60 ff15 fd6b fcea fea6 2d f5 ff79 ff64 e ff79 38 ff21 ff27 ffaa ff7f fed2 ff3c 1f 21 125 1b2 11c 1e ffbc 95 ffb3 fdb6 fd33 fdfd fdd0 fe31 fff1 26c 174 ff92 ffd0 ff59 fe26 ffbc ff19 fe92 ff75 ff6f ff0b ff56 a5 172 19a 9c ffec 47 ff89 ff7e fe26 fda2 fccc fd01 fdaa fd6f ffc0 ff5d 37 ff4e ffee 7 fe62 c5 fecf fe7f ff2d ff55 ff5d fa 1ec 17a 12 ffac ff70 5c ff2e fdb7 fc9b fce0 fd19 fdb9 fdd7 fed5 a4 108 76 ffe2 91 39 ff28 ff61 fe0c fdfb fda8 feb9 e9 295 19f 172 ff6b 26 fff6 ff23 fe78 fd8a fce9 fe47 fef6 feb5 fe57 ff90 83 1e9 132 96 48 22 fe58 fdd6 fd81 fd35 fca8 fe5d 235 300 12f 49 ff94 1d ff7b fe56 feb0 fdeb fdf5 ff2d d9 47 ff9b ff3b 8c 15c 106 e8 ff9e fe7c fe2a fd81 fcbb fd7c fdda ff01 1e9 2cc 115 7d 3e fff7 ff08 fef9 fee9 fe8b fee6 59 151 1df d5 d7 18d 28c 164 f 82 feaf fd5f fe3d fcfe fdb7 fdc6 ff09 ffd8 f1 d7 56 6b ffdb ff7c ff0f ff64 ff99 ffb5 34 18a 1bf e0 158 110 1be 82 b0 2 fef2 fe1b fd3a fd0d fe74 fe5e fed4 ff85 34 ff31 4b 94 65 ffee ff96 ff94 ff9a ff5f a8 19a f5 5b 9b c5 f9 ffd0 5e fff0 ffdf ff59 fd87 fe19 fe40 fe9e ff76 ffab ff63 ff95 9d f7 df a0 92 2a fff7 fecf 21 1a8 8a 9f 3a ffe8 e3 ffd0 47 2d ff12 fea6 fdc3 fe17 fd48 fe0f ff42 ff67 feb7 ff7f 10e ca 46 125 1bc f5 ffed ff4a ffd5 c3 10f 77 ffbd ff4a 154 25 1a 2e ff75 fe5a fd85 fe06 fcdd fd3c fdcc fdc3 fe82 fef4 ff3d fea4 ff37 c6 2c ff9a ff3c feda fed9 9b 5e 1cf 67 1 5f ffef ffc9 fff3 5f b ff78 ff42 fe69 fe0a fe36 fe16 fde1 fe73 fe6b ff27 56 aa ee c3 a 20 82 89 ff36 48 ff2c ffa1 fff6 7 33 fff8 41 7c 1dc 127 11e 1ca 143 f5 f3 16c 1a8 ffd7 1e4 115 15c 1c1 13c 13d 179 90 ff9b 10c 4c ffe2 ffdb 22 fff4 ffd9 ffd5 2f ff23 ff36 fe67 fe74 fe9a ffa2 fff3 1a3 14d 22 2b0 135 10c 151 180 111 a5 2 ffc8 ffdb 7 2d ffe6 18 32 15 ffe2 ffcf ffe5 ffcd 1f 2a ffd9 ffc6 fffe 13 ffae 3 a0 4a ffff ffce 48 10 17 2f 22 fff9 16 ffd8 46 ffdd 47 fff8 ffe8 17 ffe3 0 ff58 ffa0 ff4f ffbd ff27 fe8a fe34 fdb8 c0 91 115 ff36 fe87 fec2 fea1 ff0e ffcf 21 2c 42 13 ffca ffdc ffd1 3 18 ff12 fe6a fe6b fdb9 fe49 ff18 50 63 47 18 ff11 ffcf ff90 fe37 fe60 fed4 ffef feb2 ff3f 3d 11 38 11 1 3f ffdc b5 ff87 ffb9 2b 69 2b 1d ff6f ffe1 a5 18d 108 1b 100 c0 4b ff92 fe92 ff73 feb5 ff31 19 ffd2 29 fff4 ffcb 12 c4 fe ee 12d 17c 180 188 1c7 179 208 1e6 23a 167 18b 1c8 199 103 89 ffa5 ff24 fdda fe99 fe23 ffff e2 6c 3f ffe3 39 134 142 1a4 10e c8 c3 ff74 35 73 197 1b2 1a2 112 151 133 12e e0 9e c9 4 fecb fdd5 ffb8 12c 37 4f 17 82 ffc8 13b 8a feb8 ffa2 ffe4 4a 1aa 1fc 255 242 20b 199 11d 149 182 e5 ffe5 1a ffb6 ff25 ff7b ff51 1e1 2e ff78 ff97 3c fea0 ff92 176 57 ffce ffae 15e 14c 16c 143 193 179 155 193 f3 52 ffd1 ffb6 ff79 ff87 ffd3 ff74 ffc0 19d 135 ffe5 ff9b fe05 fe78 0 126 0 bf be 5d 6e ad ffae ffc9 78 45 93 de 58 1 1b feff ffe0 10e fe86 ff24 129 249 52 feea fe31 feac 5e 1b3 96 175 150 5e 95 1 fedc febb ff86 4e ff e0 a4 ffcd ffaf ffc6 25 a5 ffe7 fda3 ffee c9 ffa4 ff7f fe41 fdcb 104 17d b6 1db 8e fffa ff77 fedd fece fe4e feb6 9d 6f 8a ffcd 92 10a 107 b9 188 76 fd3c ff5c 2f ffcf fe89 fdb3 fd2b 196 1f4 1d0 d9 ffc5 ffd4 fe8c fe66 feaf ff72 61 200 138 76 7a a1 f3 195 c ff74 fe84 fe6d ffaf ec ff2d fee0 fe42 fcf6 11b 1d6 e4 f ffaf ff7d ffba ff0b ff12 8 1c0 370 26d b2 10c 2c 106 23 ff78 fd91 fd9a fe88 feb5 55 ff95 f5 fdcd fd30 59 35 ff4d feae ff9b 15 ffe3 ff71 ffce a2 269 2ed 178 19c 1a0 e6 71 ff7d fe39 fda7 fd3e fe33 fef7 11d ffb9 ff4e ffc2 fe25 ffcc fe80 fe2c fe6e fef1 ff46 ff80 fece 2c fc 22a 1e9 107 11d d6 11 ff5e fec4 fe82 fe48 fdb8 fdb8 ff62 182 fffe ff08 5e ffc4 15 ffe1 fed8 ff08 fec9 ff49 ff33 fe31 ff69 19 1f3 1b7 98 a2 ffae ff65 ffc1 ff4c ff5f ffb7 ff36 fee7 ffec f2 ffd9 ffaa 142 145 160 23b ff4f fe46 fe90 fdff feb6 fee3 ff28 ffed 161 a4 ffb0 28 ff66 ff71 ffe9 ffd5 1d e7 db b1 ffb3 ae 58 fffc 144 111 1dd 246 ffd9 fe74 fe95 fea3 fe5b fdd9 fe3f ffe4 ae 1d ff66 ff75 ff50 feca fff7 33 6a 78 80 ff3d fe2c a6 11a 19 112 13d 1bb ac 46 ffeb ff30 fe6b fdf8 fe67 fe67 fee0 ffdb ffd3 8 ffd5 e ff79 a9 149 10a 191 11c ffd8 ff65 c8 ae 5b ff50 fee7 fffc f6 c0 6b 44 ff04 ff5f ff46 fe38 feeb 41 ffc0 ffb3 20 1 9f 132 c5 13d 1dd 133 ffd7 a 1eb ffb2 10 ffdf fed3 12 de bd 15a 143 12 ff52 ffce ff37 ff58 ffb1 ffaf ff9a ffcb 44 132 15f 205 1a1 1d6 14a 36 fefc cd 62 c1 a4 11f 86 111 b8 22a 17d 52 22 ffd5 ffe2 ffc9 ffff ffe6 ffed 3d 77 11e 174 155 e7 ffed ffba fef5 fffb fedd ffe6 39 a4 14a 15e 14c 130 213 1d5 b2 9d 3b a5 ffec 7 5a ff8c ffac 38 af 5 8e 25 ffe5 40 3 23 fee7 ff8f fff2 29 226 1a9 128 6a ffcb f2 172 d 45 ab 87 c0 91 9e 36 ffe0 d9 9d a2 e1 105 1ab 7c ffb9 fed4 f ffd7 6 20 99 a4 ff6e ffb0 2e ffed ff53 1 f3 14e 112 67 6f 9c ffa2 2a 2a 1c a1 30 1fb 57 ffa3 ff1c 40 ffea fffb 97 fe43 fed0 11 c7 e1 14a b7 17e cd 135 119 123 72 2f 2f 84 11f ef ff8b fe36 fee6 ff80 ff26 ff9a ffee fff7 31 d b6 1df 122 b2 d3 14c 254 256 1f6 17b f0 215 10a 13f 1e3 17e ff61 95 c6 ffc7 ffc6 b9 ff83 3a ffcd ffe3 f 10 ffe1 ff08 fef5 fda1 fcf0 fe15 ff14 fff7 8c 87 ff2a 1ef ffde ffee feb9 ffcf fffb feed ff9a ffc6 ff49 e 27 fff8 ffbb ffda ffba ffe7 0 44 32 fffd ffe5 ffe3 16 2a ffd5 ffdc ffdc 86 51 fffd 33 c fff5 ffec d 7 ffda 1a 1b fff4 ffd5 ffe1 18 ffcb ffc4 ffbd 16 ffa0 ffdb 30 ffdc ffc0 ff01 fecd ffa9 fff2 ffcb 12a ffbc fef2 ffb2 fed4 ff0a ff42 fffd f ffc3 3e ffc2 5 9 0 20 45 ff81 feb1 fef3 ff5d 12 ff30 ff6f bb 116 163 196 ad fefc fe7a fd7d fdd5 fea8 fee0 ff7f 6c ffce ffbd fffe 47 3c a9 ffb7 ff56 116 c5 89 115 15b 14b 363 38b 2ed fc 72 179 c3 ff81 febf fea1 fda8 fddd fdef fde6 ff41 ff65 ffbf 24 6c fa a7 13b d5 bc f0 184 1b0 225 263 2d7 221 192 130 e6 84 39 ff19 fe25 fd7e fe31 fdac fe7e 9a 79 32 21 ffbc 10f 125 1b6 155 196 105 68 12 96 178 1ba 18b db 1db fc ff7d 41 ffd0 feae fea0 ff09 fec0 ff0e 187 ff93 ffef ffbd 76 a6 23b 149 d1 155 ffd5 8d 108 fd a0 162 1d7 137 9b 119 12b 47 ff06 feeb feee fdad fdfc fe61 152 cf ff64 ffee ff9c 5a 196 26d 105 ac ff11 2f b2 1b ff6c 59 b0 c2 f9 f9 80 58 ff94 fefb fe20 fc46 fb9e fe81 9e bb feeb fec5 fe3e ffb9 68 1f5 c0 fff7 ff97 52 3 ff79 fdde fea5 ff14 ffd6 14b 1b2 d8 f9 56 fed8 fda5 fd4e fb63 fc88 fefc ffd7 ffe0 ff1b fe0c 1e 131 16b 72 ff6f ff56 ff10 fe6c fe5f fd5b fde4 fe9d 27 267 300 31f 1cb e0 ff95 fd90 fcab fb7d fb0f fed3 feed ffda ff77 fe10 ff55 190 ff67 fe3a ff28 fe1f fd7b fdff fe3f fe23 fdd8 febd 7c 130 2df 333 2ec 1a7 ffb6 fd4b fc78 fbcd fb15 fee1 77 74 fed7 fee1 fec8 88 fe64 fd6b fdc7 fd08 fd92 fe13 ff9c 38 ff9d ff38 b3 1bb 23e 317 2d9 146 46 fd29 fc4d fc57 fd64 ff84 a0 5e ff66 febd ff6b 99 fec3 fdba fd19 fe96 ff2d 57 2a 75 ffcb ffe4 177 307 31f 282 153 ff39 fd30 fc8b fb56 fb85 ff1b 126 fd 84 ff89 fed5 feb2 ffc4 19 fdde fe2d ffd1 6d 44 34 81 6d 144 25c 246 290 14f 2f fe34 fd19 fd35 fd88 fcbc fe81 2aa 1a4 e8 ff7c 79 fea4 ffe6 b0 fe90 feda 62 36 ffbd ff54 ffab 41 125 197 1a2 12e 66 ff1b fdce fd21 ff2d ff03 ff25 ff3a 2bd 293 da ff4b 5b ffb3 ffd4 15 fecb ff56 c 9f ff0e fe75 feb9 fedf 10 182 1d6 100 ff63 fdc1 fe03 fd76 fea1 fff6 117 99 243 2a6 183 e 161 1ed ba d1 ff12 ff6d ffab ffb3 2e febb fedb ffbc 90 ce ffee 1 fe9a fe7f fe70 fe8d ff3f 33 16c 203 230 2a1 155 36 164 269 c9 cb ff1e fecb ff25 ffe8 ff9a ff81 ff99 c4 1a5 ff74 fece ff09 ff54 fede fed0 fe9a ff81 1e 13e 1a9 154 129 e5 20 b4 1cc 286 89 45 ff8d ff37 ff59 ff71 2d ffa1 ffc9 8 ff39 ff66 5 ffc8 ffd7 ff6f ff6d 14 d4 107 c8 17a 10a 137 ff35 ff62 ff3f 289 ffe9 ffcb ffad ffc3 ffb3 31 55 ff13 ff45 ff63 ff99 ff8d ffd2 ffbc ffc5 22 ffe3 ffc7 8f ea 3e f8 1d9 104 24 ff96 ffc5 284 25 ff8e 45 b2 45 66 fff4 ffb1 ff7d fef6 ff6d ff91 8a ffaf ff5b 67 f4 47 3d 1d 9c 140 16d ff75 ff7b 105 1a8 1ac 63 ffda 7a 39 ff9e 18 ff87 fefa ff5b fed3 ff28 9b dd 62 ffe6 4b fff3 45 ffd6 ffe1 13 214 ffba ff6c ff99 bc 316 20d d6 9a f6 128 31 ffea fff6 ffde ffcf ff73 ffa8 ffe7 12 ffa8 ff7e ff6e 43 77 a7 ff3b 4f 1b3 ffe5 ff81 ffcd ffc2 215 23c 9b f4 4a ff c3 61 fff7 32 ffd4 6e ffe2 5a ff93 ff88 10b 33 4d b2 ffb4 35 ba 120 82 ffd7 fffc b 12d 128 37b 355 f4 5f fffa ff16 73 4c 13 6a 56 17 7a ffe2 ffb3 ff5f ff87 11 6d c1 ffc3 b5 ffff ffdd ffde ffe1 ce fee0 5d 132 78 45 c3 52 7f 90 78 102 16c 9f ea 127 36 ff8a 2c ff76 fed1 ff1a ff65 49 fff1 e ffe0 ffbf ffe6 b3 257 14f d9 c4 ff9c ef 1c0 216 1e7 1aa 2f6 18f 182 273 213 15 ea 18b b8 ff98 3e ff7c 1c 28 ffb9 27 16 fffc ff64 ff1e fe93 fe47 fe8f ffc2 7f 12c b9 ffce 29d 12b 7 feb6 a2 cc fff4 84 3c ffdb fff0 3e ffbd 10 2 fff6 ffcb 2f ffdc ffc1 16 36 ffe9 ffc9 23 fff3 ffd2 0 ab b0 ffe9 ffd3 23 4 ffda ffbf ffcd 20 3 42 ffcb 3a 32 35 2a ffc6 32 4b dd f3 91 ffe7 ff85 ff8a 23 ff49 ff93 51 19a 78 ff2f fe99 feac 95 5b 81 ffb9 ffcd 28 fff7 2e 23 39 33 ffcd ff64 2e cb 154 1ce 233 13e 188 110 212 1ab 1dc 150 de ffb6 ff89 ff81 ff33 1c 3 bc 1b ffbb 2e b 11f c8 ff24 7 e6 217 315 2a4 18a 27d 20d 182 132 22a 250 254 2ce 231 1ad ff7e ff14 fe6c ffdc ff59 ff5e fff4 32 3c c8 146 69 19a 24d 11d 17a fff2 90 116 4f 17 fff8 26 c6 ffc6 e0 170 111 ffb1 ff26 fda2 fdbb fe9d ff1c ff82 ffdb 2b 13b 43 146 24b 194 129 13 4d a1 96 ffcb ff30 ff4e 36 7d ff48 ff9d 19 3f 92 68 55 feee fd6d fecd ff3e ffd8 7d 11b 121 aa 202 1f2 d3 2b 1be 19f 125 73 3c ffb0 78 39 ffab 4c 30 ffa4 ffae ff52 fedf ff68 fd24 ff35 ff73 b 16a 122 212 e9 120 68 57 a9 137 16e 1da f2 113 198 b7 fff2 1e 66 86 44 ffa7 ffec feeb fdb8 fdd5 ff07 fefc ffbb 143 40 30 93 3b ffac a ffb6 75 176 1b1 107 b5 11e ffc7 ff39 17 27 9e d5 1f d1 64 fe6f ff6f 47 ffe6 fff8 43 71 a1 5d ff98 fecc 13 ffb6 ffe3 ffda ff55 fea6 fd4e fdd6 fef0 ff43 ffde ffb8 ffc3 7 8d 1a3 51 ff2b ffee a0 8b 1a 5a ac aa ff65 febd fe8e feac fddf fd02 fc84 fad0 f9d0 fa63 fd14 fedb 24 fef9 ff39 ff92 fff5 e 7f 71 175 181 dd 12e 19 69 b4 ffcd fdc6 fc8b fc35 fb29 fa6f f902 f92f f90f f931 fba1 ff27 ffe4 ffa3 ff02 ff29 ff5a ff7d fff1 ffb8 3a 7e ffa6 fe1a 88 2 ffb6 fff5 ff1c fc2f faa5 f9c4 f8ec f92f f9fc fc05 fced fe86 ffdc 133 2d 48 ff8b ff80 ff70 ffcc fea9 fe69 ff01 f 91 12 54 ff52 ff56 ffcd fee4 fb09 fb28 fb08 fbac fda5 fe70 ff8c ffef 160 1b9 198 ffaa 29 ffda e ffa5 ff2e ff16 fed0 fece 5a 10c a0 14 ffd0 ffa4 ff42 ff4e feb4 fe61 ffaa 56 17c 218 1ff 1be 1aa 21d 144 ffd3 46 18 d0 ffb4 ffe5 ffc6 ff8b fff7 d5 40 149 136 ffc8 0 47 52 f0 1a3 305 29c 24d 1a1 15b ff 9b 1ad 4b 57 4e 17 fff1 ffc5 ff32 ffc7 ff6b e7 244 ce 1b2 1cc 25 9a 1ea 1c2 1a5 231 2de 1ad f2 82 ffe4 20 102 139 48 3 44 59 23 ad 6a dd 91 f0 165 1b0 253 15f 2e 145 229 276 18c 219 255 a1 15 ffaf ffda 51 75 8c 77 5 9 55 8a d3 ffe2 50 ffa7 ff87 7c 188 fb 7a 41 132 d5 421 156 142 d4 46 a ffe2 ffab ffba 69 7c a5 69 126 12f c3 a1 ff8a ff80 ff2b fe67 ffde 1df 212 13d ffb8 ffb7 c 101 c3 e9 72 fffc ffe0 51 ffdc 18 4f 140 147 11c 3b 6e ffd7 5 ffb5 ff0e fed1 ffd8 bf f3 1b3 d5 1e ff85 fffc 1af 6a 16 8a 16 9c 2a ff70 58 58 12f 1bf 54 3 ff5b ff51 ff48 ffb5 ff66 ff0e 1c a5 dd 17f ff83 50 115 23a f4 ff5b ff7e ff7e ffb6 ffd2 ff7b ffcb ff89 8f 62 79 fff1 ffc3 ff9b fff6 47 0 b4 ff51 2d ffc7 12b ac 27 5f 4f 2c9 ff ae 3d ff5b ff78 ff79 ffc1 ff50 ff70 ff7e ff38 ffa0 1e 49 ff9a ff99 153 a3 8e 49 ff67 ffda 113 ec ffdf 47 ffe4 1c3 1a8 126 8e 14 fffb ff76 ff89 c 3c 65 ffc9 2 ffff fff7 fefb ff8d 38 6e 35 4f ffdd ff39 f5 118 22 29 1e 158 26b 23e ac b3 72 d9 130 63 b8 66 ffd5 8 ffac ff53 ffa1 fe18 fe74 fee8 ffa8 ffe3 ff58 65 e2 cf 1c ffd8 2b fff8 23b 104 92 118 17b 1ba 19b 102 a6 155 22 103 a2 46 ff83 fee3 ff17 ff3f fe6f fe3d fed9 9c 53 2f ffea 9 fff5 26 ff94 ff2d ff06 ff78 77 a2 b8 ed 134 ffdc 0 99 c7 ffc8 ff0a feb6 ff1e ff4c ffd7 ffaa ffe6 ffe0 5c ffd3 fffb ffea 14 ffc8 ffc4 5a 46 82 f2 189 219 1ee 314 316 22b 219 1fb 1d0 96 1c ffbf 28 ffb1 ffb6 2f ffe0 2b e ffca 43 fff0 14 ffc8 1c ffbd ffd0 ffe2 1a ffbf ffd7 fffc ff71 ff50 83 5b 3 ffeb ffce fff5 39 2a ffea ffbd fffb ffe5 35 ffed ffe5 1e 42 14 ffaf ff73 fef4 fe95 fe63 fec9 fe4e fe62 fdca fe50 44 feb1 46 fec1 fd21 fd45 fd49 fdfd fdff feee ffe6 8 ffcd fffb ffc9 fffc ff58 ff04 fedf ff37 feac fe37 fec6 ff81 fe88 fd89 ff52 ff99 ffd2 ff9b fe91 fe69 fd7b fe1a fdba fe32 fe21 fd82 ffc7 8b 28 28 6 2b ffdc fdaf fe5b ff8e fe70 fef7 ff34 66 55 81 ff63 ff33 e 8f 75 ffcb fe55 fe1e feb2 fece fff3 ff3a ff57 77 ffbf ffbd ffe5 9a 126 fec1 ff38 ffe0 f8 1bf bf 1af 7c 59 ec 12e f1 107 165 19c 187 10a b9 33 11d ff95 ff16 ff2e fe44 ff94 ffcb ffe5 ae 3e 13c ffe6 df 6e 7 ffdb ff31 ff88 ff9b 4 99 bf fe 13d 249 1c2 fc 90 131 39 feb7 fdca fe21 1c 9 50 50 aa 150 aa b9 ff78 ff81 fedc fe81 fed4 ff34 ff8f fedc fe7f feb3 ff4a 76 ae 79 b8 1bc 53 fe68 fcf8 fdcb 80 ffea 3c ffd4 16a 1d6 121 3f ff37 fe65 fee1 fec5 ff83 ff34 ffb1 ff2f fedb feee ffb0 67 98 107 13a 15e ff65 fe3c fdcf fe44 ffc1 42 ff70 64 141 14a d3 e fee5 fe2a fef0 ff37 ff82 ffd3 ff92 ff55 ff5e ffa4 9c 123 86 9c 18 ff95 ff8f fd2b fc5f fd6c ff55 ff89 fed7 ffea fa 2b 12f 2d ff11 fec2 ff77 ffc9 fe83 fecd ffa1 fe0c fd9e ff0c 95 14a 107 110 35 ff53 fe2f fc3a fc57 fce1 ffa2 48 feea ffd3 1bf ffde 11d 1f feba ff0d ff01 fed7 fe90 ff61 feea fd3b fba2 fe23 16b 194 197 fd 45 ffda fe3d fc95 fd0f fd9a ffab ffbb ff9d ff4e ec 10 5a ff44 ff08 fee3 ff94 ff6f ff0d ff5c fe6e fcad fad4 fd64 97 f8 1b4 ffde ffd6 ffef fe30 fdd3 fe37 fea9 feff ff82 ff5f 5 ffb9 ff96 9 ff04 feff ff47 fff8 ff3d ff53 54 fefd fc0f fa5a fca6 ffac 28 68 ffaa ff8a 8 fe94 ff76 ff14 ffbf fff7 fff4 72 ffa2 3b ffa5 ffd6 ffc9 ff7e d ff98 ffcb 30 74 fea4 fc42 fb90 fce5 3b 47 ff9f ffc2 ffea fc ffef 43 2f ac 8e ffbf ff1d fe9d 3b b3 41 7e 90 f6 128 48 56 5f fe7c fdaf fc9e fe5b 98 13 bd 91 58 34 fecf ff19 fff6 24f eb 15 ff6c fa 192 c0 ee ffb4 e2 14b 1e1 1e5 15a 5e ff48 fdbc fe28 48 105 6c 228 a4 b5 115 ff8f ff3b 55 340 e5 47 ffd3 d8 1d2 76 6b 4b 151 1a7 1eb 1cc 244 ce fec6 fee3 ff7d 177 207 229 26c 1ee 2bd e4 ff19 feec 108 2cf 121 ffcc 23 1c2 118 d6 a3 156 147 152 134 178 a0 fffb ffbc ff42 8c 238 269 281 183 61 161 b3 ffbe ffa3 203 235 a2 ff1c cb fff9 f3 17c 170 116 1a3 14e c0 60 ff70 ff8f ffbe 4c 17f 2b9 20a 304 170 41 10a 98 8e a8 131 196 12c ffcc 5d 4c 89 174 1a2 da 1bd 1a2 111 d9 ffc0 ff99 1c 11c 16c 19b 1fc 1b9 e1 7f 11d 29 39 ffcf 8e 26a ac ffbb 69 1b4 302 202 15b e5 14c 109 96 35 9d 73 ffb2 40 84 d6 11e 118 db 104 1bf c9 52 ffd3 ffb2 2b0 19 ffae cd 182 28e c0 ffd5 ffa0 ffd3 35 ff7b ffda 7b 24 ffd2 ff82 ffd1 c5 1d ffd8 107 13d 1da 266 1e0 ffcf ff8d 3 74 ff92 14 1e4 286 60 5a 91 56 ffe0 ffff ffc3 1c1 f4 ffe0 ff9a ffcb fff2 fff1 2 12a 187 315 2c2 20 61 fff1 ffe9 5d ffd1 3b 15c 186 ffeb 3e 72 f1 f0 70 61 16f b6 ff4a ff48 ff3a fef8 ff54 6e 31 8b 25b df ff7e ffa0 ffc0 ffd4 8 40 40 ffac fead ffc3 fe72 fe14 ff0e ff45 ff1f fe92 ff1b fe55 fdec fe64 fea1 fea6 fe14 ff05 fe22 ff0c ff40 ffb2 ff2d ffa0 15c a5 2e b ffd4 0 ffb0 ffc5 fd50 fd54 fc4c fadc fa66 fbdd fc26 fa72 fb92 fe39 ffa7 febe fdfd fe29 fd88 fd30 fda3 fd97 fe3e fe1d a8 80 e 12 14 3a ffef ffa0 ff2a fef7 ff0f fd37 fcb1 fc8a fc41 fd3f fd20 fc30 fcbb fcc0 fc4a fc6a fd9d fe81 ff00 ff43 ff30 ffbc b ffd9 ffc1 fff1 ffb8 26 ffc9 ffee ffef fff4 ff56 ff4c ff3b feb9 fe98 fe80 fe99 fe18 fe4c fef1 fe5b ff09 ffc9 4 ff47 ff39 ff69 ffc3 ffbf 0 ffef 39 ffc0 3d fff8 ffeb 1c 15 ffe9 21 3e 15 fff1 ffd3 ff7c 81 65 29 ffff 13 a 37 ffc0 ffe4 4 2c 1f 46 2b ffbd 33 c ffee ff8c ff2b feea febb fe65 fe96 fe29 fe1b fe62 fe93 ffc8 fe89 ffc8 feb5 fd52 fd81 fda4 fe0f fe8b feff ffc2 fffc 18 48 2d ffff ffc1 ff1f fec5 fe77 fe68 fe2b fd38 fd38 fc4c fb98 fccf fca2 fca7 fcb0 fd79 ff16 ff80 ff76 fec7 fd90 fda8 fd62 ff65 ff63 ffc0 9 ffc1 b ffc0 ff28 ff26 fed1 fe3d fdab fdf8 fdbc fd5d fcd3 fd6c fced fd3f fd0b fe33 fe6e ff3f ff9c fe7b fef7 ff33 fda9 fe25 fe2c ff93 ffd6 ffe2 ffb4 ff73 ff5c ffa6 ffb5 fea7 ff21 feb8 fe65 fedd fe49 fedf ff82 fe9a ff1f fe1f fea9 ffb5 ff6e ffe6 8b b ff8f 17d b9 ffbe ff1b 0 ffd3 ff73 b6 ef 9f 0 fefe feac febd fe45 ff0e ff9d ffa3 1c ffc5 ff42 ff3e ffcd 20 131 117 1f1 e2 ffac a5 71 ff69 ffd9 ffc7 ff9b ffc3 ffc3 ff72 fe7e fe25 fe84 ff05 fe73 fec8 ff0c fec7 ffb6 ffce ffd8 ffd3 1c 123 cd 7e 149 f7 104 ec 260 ffb6 ffc0 fecb ffc8 ff48 fdfc fe91 fd5b fdb0 ff7d fefe fe75 fe2d fe19 ffa7 0 ffd3 50 ffea 11 e9 c2 2a 62 b0 ffdd 159 20c ec ffc1 ffd3 20 feda fdde fdff fd53 fe18 fe84 fd77 fe59 feef feda b ffdb ffb0 ff7c ffdd 8d 107 91 e2 2 57 178 39b 1c2 ad 45 ffeb ff85 feac fe34 fd14 fe4b fec0 fe57 fefd ff80 1c ffea b8 ff37 feed ffad bb af f2 b7 144 147 10c 1bb 202 16c ff75 ffe8 ffba fece ff26 ff27 feed ff9e ffe4 fffa 10 af 5a 63 fe68 fd04 fd8e fdc0 fe9a ff79 68 ff93 69 99 14b e5 27c 21f ffb4 13 fefe ff62 fe7d ff0a 181 1bb c7 bb c3 3a ff27 fde5 fc16 faab fc0e fd7c fe97 fedb fff4 ff63 fffa ffa4 ff78 ff75 23e 30d ff84 1e ff29 ffae fe0b 25 292 271 16d d6 ffe0 ff68 fdc3 fdf1 fdd6 fcc9 fd69 fe3b feec ff07 69 dd d6 ff3a fec6 fe50 ffc7 160 ff53 44 ff94 ff2c fe53 bd 267 22e 23a 162 e4 a1 a4 130 125 49 7b 2c b3 2d 9f cd 62 fedc fe87 fceb ff1f 115 ff9c 36 43 fe8c ff84 187 187 1dd 1ce 1ea 23a 23d 231 2c7 24e 2cb 220 1e0 144 ff5f ff52 ffba ff46 fee8 feeb fe77 ff72 24f 2c 94 79 fff0 d7 16e 20e 23a 128 25e 355 34a 316 304 259 2a3 247 2ac 43 ff60 fe86 fda3 fdf0 ff69 ff75 fe7e ffbf 2aa 10d 30 89 61 15d 68 106 138 3d 109 1f8 2a5 379 3e4 2dc 222 209 180 1d ff1d fe5d feac ffed 9e ff92 fe80 16 194 12f 13 23 168 11e 0 6a 115 2b ffbd 110 234 309 2b9 27d 145 e4 6b ff4b ff3e fe61 fe9c ffdd ffd9 ff54 fe6e ff7f 205 19e 53 ffb1 203 86 ff50 81 c9 ffe3 ffb4 35 85 c3 107 165 92 10 ff71 fe82 ff36 ff48 ffc1 68 3d 51 5d ffac 185 12b 71 ffd7 10c ffb9 ff42 37 38 ff5c fe85 fdf3 fe4e fdb2 fd88 ff0d ff7c 38 ffe6 ffd6 b3 fffc 52 56 16 175 1ef e4 239 8c 2a 1f e2 ff4e 4d ffa3 ffe4 fee0 fe10 fdab fcc1 fd03 fc4a fdf9 fed6 ffdf 114 13d 134 11 3c 5b 99 1f9 1c9 13d 1f6 19 0 13 76 ff04 93 7a ff65 fe32 ff27 fef5 fe88 fe4b fe53 fec2 ffbc ad d8 e4 42 fff8 a8 d0 199 1ee 276 14c 18 39 4d 3e ffa8 ef 7c 2d ff67 fde1 fe5f ff3c ff4e 1c ffca ff84 fff4 ffca ffa8 63 1 68 1aa 154 174 22d 2d1 1af 74 ffc8 ffbe fffb ffda 103 127 45 ff95 ff39 ffe9 17 71 b6 16 2b 93 ffa3 ff73 ff2a ffb2 69 204 1e6 1c6 300 2c2 20f 15d 37 ffe1 32 69 ff5c ffc6 ffeb 62 ffba 47 d5 65 ffd0 3 ffd0 2b ff06 fef9 ff3d 97 14f 1e0 1c3 234 338 192 30 ff37 ffc7 ffd3 ffbb 99 feb1 ff0b 1a a8 ffb6 15 fece fe72 ff6c ff0c ffcb ffdc ff66 fff6 0 44 9f 127 10a db 319 f1 ffe1 ff33 ffed ffef 17 fff9 b6 1b8 b5 8f f1 42 ff88 ffd5 154 1d6 74 ffdf ff5f a2 139 23 b c8 7d ffb8 106 fff0 ff87 ffd5 38 42 45 ffd8 12 ffda ff8a 6f 94 fffc 46 137 10a 189 fffe 3a d ffbf fef6 7c c6 ffae ffa6 ff28 ff0d 18 fff5 ffc4 3 ffce ffdc 24 37 ffd8 11 44 c ffdf 4 47 ffe0 98 e5 33 15 16 fff0 ffe4 3c ffe4 27 ffdf 0 28 a 36 ffe6 ffe7 ffeb 12 11 94 92 14f 11e 1c7 29d 328 1f8 220 26a ff7f 18f 300 37a 397 2de 255 1e9 1ed 11f ffdf ffbd ffdf ffc7 35 ffbb 9b ff 119 1a6 1d4 27a 32a 2f6 23f 2d8 273 fff6 ffbb ff4e 50 195 20d 1e6 160 247 307 23b b7 5c ffed 46 ffd6 14 ff3a 15c fd 34 11b 98 49 1fd 1f5 162 9e 9b f7 150 31 ffe1 ce b8 ff94 8a cc 1f6 1ee 7a 5f 48 fff4 12 ff44 fe8e ff7d ff41 ffcb ffbf ffd3 10c b1 30 8f ffd0 88 b1 154 17c e3 113 ff79 fe89 fdf3 ffb2 57 f4 19c e4 7 fffe ff41 fe35 ffc0 fe4f fe7b ff8b 1e 24 5e ffe9 5e 61 11f 36 c1 fffc feaa fe93 fe4d fe01 fda6 fe53 79 284 1d6 103 fff2 7 fffc febc ff5c ff45 fecd 53 8 ff67 ffb6 5f 85 47 ffc2 fe02 fd8b fd28 fc56 fcbc fd41 fcf3 fe9d ffa2 211 36b 25d 1f6 6b ff44 67 fe6a ffa0 feb4 fee4 ffb2 7d ffde a1 a8 ff9f ff49 fe81 fdb0 fcb6 fd11 fd4d fd5c fda0 fe6e ff1a 25 24e 3e8 169 243 f3 3 c1 ffaa fef6 fe63 ff23 ffc0 fff6 12c 12c 156 b2 ffe9 fe75 fe0a fdcf fed8 fe34 ff93 31 ff22 ff1e 18f 235 26a 15c 12b aa 4d cd 6a ff7f ff66 ff89 ffc7 fffd 4b 92 165 16f 14 fed4 fd9d fed0 70 93 bc c b3 70 6e 2aa 245 176 ff91 65 ff87 c6 d2 ffe7 ffca 39 51 ff98 ffa0 57 13c 180 65 ff07 ff03 ffa6 140 1c9 18f 10e 166 b4 191 312 cb 223 ff4c 42 7b fef5 ffc9 feb1 6f da ea ffcb ffe9 ff16 aa 10e e fee9 fe6d ffc1 a2 e3 21c 7a 104 1bf 227 452 1fd 1b1 ff46 19 76 3c ffd4 fe4e ffa2 ff6f dd ffdf ffd1 ff66 dd 190 9c febd fe92 ff84 2e 99 163 137 12b 154 10d 51a 2cc 25 ff84 ffc1 47 ff7a 16 fd9c ff85 ff64 ffae ff85 12 7e 11c 16e d0 ffb7 ffff ff2e ff81 98 91 135 47 b5 13e 3a7 242 191 153 ffd8 ff61 fe9c ff0e fd32 ff67 ff3e ff9a ff99 ff9d d8 181 109 ed 1a ffd5 ff26 ffbd d febd ffec ffe9 cf 4d 1e4 25e 219 1fb ffcc ffa9 fea7 87 fe85 fef1 ff42 ffd7 ff58 1f 11e 1ac 1d0 11a a9 1d ffeb ffde 7 fed5 ff33 ffba ffc7 ffc4 23a 37e 143 11f ff72 ff06 fef5 3a ff63 ff18 ff38 ff70 fed7 ffd0 135 204 22a 178 87 a6 61 12a 106 ffd3 fea7 ff7a ffc7 e0 173 5d3 268 fa ffc6 ff31 fef1 ffa9 ff5b febd ff93 fed7 ff41 fffb 30 20d 204 128 82 ffe3 aa 10e 166 9e ff9c ff3f ffb7 fff2 110 49c 185 1d4 fee0 ff1e feb0 feeb ff28 fead ffba 97 5d 21 157 1f5 319 16a fff2 7 53 87 11f 34 fe80 fee2 ff13 ba 22e 37a fa 105 ff88 1d ff6a fe03 fe3c fe11 feb7 ff8e ffc2 90 27a 34e 308 191 fff8 6b ffb7 d8 4c ff70 ff16 ff57 ff74 ca ffc8 db 1d9 ffb4 6 ffd0 e5 ffee fded fee6 feb0 ff47 ff4a 171 2a0 2d0 2be 1d7 3f ffce ff35 ffa4 50 1d fefc ff7e 14 3e ff55 16 76 ff6d ff7e 4d 10c 109 fdd4 fef9 fe5d ff2e ffc6 21a 20e 274 1dd 1b6 77 ff07 ff86 20 75 0 ff61 fffd 16e a3 ffd3 d7 17f 1d ff82 ffef ffd3 1a8 ff91 fe89 fe49 fea1 ff5a 98 1b6 1e5 23d 183 24 ffd8 ffba ffb7 feeb ffc6 fe9e ffd9 4d ff95 fef2 118 89 fffd ffd7 3b ff8a 29 ffc4 fdab fd1b fd23 fe98 ff53 12 9d 194 f5 c4 3e ffd5 fe77 fe74 ff2e ff32 ff60 1b 54 ff71 7d ff84 34 36 2c ff9b feb6 fe5a fd3b fc3d fb85 fcce feb4 fec2 ffef 40 cd ef 99 142 fedf ff62 ff28 fef1 fec4 ff27 fed5 80 ffdf 1f ffc2 11 37 ffd6 ff0e ff2d fe89 fdf9 fcdd fbe9 fcef ff1f ff47 ff48 ff5d fed3 e8 155 85 fe91 fdd8 fe3f fe6f ff7c ff3a ffd5 6e 86 ffba ffbb 2e 1e ff83 28 ff44 ff17 fe30 fddb fd9e fe88 feda fead fe2d fcf3 ff0e ff66 ff3c fd8e fe2f fe78 ff9b 21 88 fff5 c 24 f ffd1 3b fffd ffc9 12f 14e 9c 1c0 13d 7a 65 fff3 ff8a 87 ffd0 b6 1e5 cf 32 50 8 ffa5 ff97 20 10 d fffd ffc4 1b 13 1d ffde 27 31 ffe3 4 ffe3 19 fff0 ffed 96 c3 ffe1 b ffcd 39 ffbe 34 33 fff5 fff6 ffe1 ffe4 ffb7 ffb9 2f 6 ffd6 3d fff2 4b bf 11d 180 1d7 216 317 137 103 177 16a 1e1 41 152 3cb 1c0 197 149 11d 67 2f 2e ffea 3e 7 28 ffdd 44 38 236 241 2e8 257 16e 1ee 24e 291 2d6 366 287 4a ff8e ffbd 93 145 4e ffa9 34 64 36 15 ffbc 25 ffc2 ffee ffdf 3c 1b6 271 2c8 1e5 51 66 181 22b 244 272 280 1ac d0 1ff dd fec0 fdfa ff38 ffb0 ff68 ff8d ffd3 ffcd 1d 9b ffd7 115 338 2b2 291 193 2b2 e5 122 132 1f3 220 112 c9 94 ffc9 40 ff7f fd28 fda2 fd00 fd23 fe82 ff3d ff94 fffe 28 fff7 4d 62 1f8 3cf 2f9 1ed 2b8 227 133 142 117 83 ffb1 ff40 fed9 fdf2 fe76 fed7 fdf2 fba9 fb1b fc53 fd60 fe74 fe71 ffeb 31 55 177 2c1 25a 173 112 8d 143 17a 75 a2 24 fef6 feb2 fead ff43 ff20 ff6b fe45 ff12 ff3c fc77 fc48 fce6 fe5d fde5 fead 74 21a 1aa 23e 1a0 aa 119 d2 ffec a9 fff0 ffef ff83 ff18 feff ff3a fe7a fefc ff83 ffb8 ff94 ffe7 ff06 fe00 fdd0 fddb fdc1 fe8e fff0 201 1ae 74 1e5 149 148 177 e2 e fff9 ff37 ffa4 ff78 ff5f ff9a fed9 ff5b ff5f ffe3 ffed ffe0 98 fffa fedc fe6e fdd9 ffd0 107 1da 10a f2 25c 190 3f f6 ffc9 ff92 ff07 ff37 3e 72 175 c0 ffca 52 20 19 ca f9 141 dd ff1c feec fcf2 feee dc 1fa 160 141 163 c8 11 34 ff24 ff5c ff5d 36 3c 1dd 171 33 11 6e 3 ae 202 20f 21e b9 feed feed fd22 ff1a 1eb 1dd 284 24a f1 58 ff3d ffcf ffa2 ffec c4 17e 1a4 18f d8 ffa9 ffa1 ab 162 1b9 28e 16f 18d 147 fefa ff9a fe68 1a e8 187 1d3 e0 bb 2b ff96 9a 127 fb 193 18f 2a ffb3 24 5a 130 163 110 51 df eb 13f da ffc6 1e fea7 69 ff68 16d 23f 112 a8 c7 fa ffa6 c4 ed b4 ff45 fe0f fe6c ff4a 37 15e 89 fffb ff2c 27 f2 ffd3 91 1c ff2a fef1 34 fefa 1a8 27f 1a2 ffac 8d e9 ffbb 2c 45 ff91 fd50 fcae fdf1 ffad c3 c5 d2 ffc9 6c 51 121 16f 17b ffae ff13 fed3 ffcc ffa2 51 fe ffe5 fee0 13 13e ffb9 fe67 fedd fe22 fcdb fcbe fe76 82 168 9c a2 37 72 113 1ad 1fb 2b ff7e fdd5 feb4 ff99 c5 150 a9 ff26 ff30 fff4 be d6 feef fef8 fd8c fc53 fd33 ff0e 52 d9 ffda 65 86 14d 10a 22c 13a ffbc ffc7 fcf0 fe0a fed1 28 99 4c 34 51 ff1d fead ff23 ff1c fea9 fdb4 fde1 fdea ff4f 131 12d 72 25 10e c8 eb e4 33 ff5e ff76 fdff ff31 fee0 b2 95 133 b8 1b ff46 fe9c fe6b ff87 ff4e fe35 fe27 fe66 ffc1 ad f7 164 1ff 109 f9 aa 34 ff95 fe33 fd5d fe1f ffd6 54 3d 117 ffa0 43 1a ff9c ff0f ff6f 57 a0 ff80 fef9 fe7a fedc 102 14f 1d1 180 58 c8 ffad ff34 fe93 fdd6 fdbb ffa2 ff68 5f ffde 18a fec5 ff56 ff7f feee ff8d 27 39 aa 5 fe78 fe1d ff9a dd 175 19d 54 ff94 ff89 ff7e fe37 fcef fc94 fef6 5f fe85 42 ffcd c4 ffc3 ff8b fee6 fe7c ff79 f e6 fff2 2a ff2a fef4 ff25 fffd 92 e0 7a ffad 85 ff08 fcc9 fc45 fbd0 fea3 9c fea0 ffed fff5 14 85 ffef ffa7 feff ff14 2 6a 55 ff8a ff43 ff06 feab ff2f bc fffa ffa0 ff98 43 fe7f fbe6 fc53 fc9a fdbc ffc1 fe84 fffa 45 3d 185 136 b8 31 25 9a fe5d fed6 ff12 fed8 fe69 feb4 ff81 41 fff1 46 ffd0 ffac fdcf fc5e fd3b fd55 feff ff5c 34 ffd9 39 a 129 162 2ab 29f 20c 148 ffe4 ff1b ff0d ff6a feed fffb 4e d8 87 ac fecb ff35 ffc4 fecb fe7e fde6 ff50 ffa2 ffc7 2 ffc9 fffb ff7d 4b b8 109 258 20b 26b 138 fffc 112 1b4 152 16d 5e b9 5c 8a 109 ffce ff48 fff0 ff7c bf 8a 1a ffee 35 44 3 ffa8 fda1 fecf ffe5 e2 126 159 6b 74 42 1a6 15c b9 f7 f6 202 299 ef 21 15a ca ff70 e9 ffc0 38 ffc5 29 ffbf 18 179 1af b8 7e 10a 63 56 ff6a ff5c 1e1 ab 97 4f 1ef 125 3b 56 14f b7 fb d 3b ffe5 6 ffc0 ffe9 ffd6 45 fffe 3b 2c e ffd0 b ffbc ffd5 ffdd 57 b8 53 ffca ffb8 ffed 23 ffbf ffb8 ffe1 ffc3 27 10 10 2e ffe2 ffe7 20 38 52 af bd a0 95 ffd3 ffdd 1d ff78 ff37 e7 91 12e 37 ffc5 ffd5 8f e2 15b d7 1e 4 e fff5 22 3e c3 fd ab bb 110 110 24e 32d 371 273 2c0 384 485 4c3 34d 158 34 9b 178 1fc 227 20b 1bc 137 ffbf ffb7 ffc1 ffee dc 147 56 d2 293 323 237 23a 21f 1f8 1ee 186 1d5 2a9 2b5 14e 49 124 96 c0 8d 8b 36 ffb1 3c 13 ffcb e de 5d 191 37a 3db 25a 2a6 1d5 190 15f 199 1cc 6a ffe9 29 ff75 fee5 2a ff4c ff28 feef ff68 fe3c fe49 fe3d ffd9 11 ffbf 27b 10e 2bf 328 271 1b4 137 53 ffb5 ff27 46 43 14a 160 1b2 75 ff2a feb0 fdf7 fe04 fe15 ffeb ff63 fec8 ff84 d fff6 24 ffee 1a7 286 2d5 1c0 57 ff59 ff13 fecf fe72 feb4 ff2d 18 10d 12c ffd1 ff21 fdd0 fcfa fcb0 fd92 fe2d feb2 ffb5 ffcc f1 ffc5 190 ff80 136 33d 16f 80 8e fe6e fe3e fec2 ff48 fe92 ff33 91 b7 67 33 ff56 fe27 fd90 fd50 fe13 fd65 fd77 fe80 5c 72 ffde 1af ff0a 1c 285 b7 54 ffb2 fdbb fe1f fed8 fe79 fe39 ff69 4a 164 0 60 fec7 fe31 fd57 fce5 fd19 fd38 fc28 fd91 fe9e ffb9 ffde 147 7d b9 106 2d feb4 fee5 feb4 fe38 fd82 fc99 fd98 ff19 80 1d5 f3 ffbd fd8b fd0f fd4a fd6b fdc8 fc62 fc5b fdb8 ff81 ff7c 7 171 24 7d ff06 fe58 fe44 fea7 fe97 fe71 fd61 fcd9 fe05 e 119 1b2 a3 ff21 fd5b fdf3 fdd7 fdb6 fe15 fd83 fd2b fe80 feb0 ffdb ffc0 ff ff8a ff67 fe26 fdc9 fd6d fe19 ff22 fedb fe2b fdaf ff75 dd 26d 162 12 fdb2 fcf2 fe6f feb5 fe7d feb0 fe95 fdb3 fe93 fd9d 55 fff5 ffde ff20 ff35 fd7e fd54 fc93 fda1 ff61 ff8f ff63 ffd9 12d 238 1a3 ea ffb7 fdf7 fdf1 ff28 ffc7 ffea ffec ff63 8c 196 41 12b a3 ff2f ffb7 ff88 fd5e fe2c fe93 fe5d 5a d4 d3 bb 1cf 186 136 c5 ffe5 feb8 ff42 2a 18f 1f2 10e 166 25b 2ef 23f 12d 56 ff74 ff59 ffd4 fe82 ff7f fffe 0 19f 201 116 ea 22e 1bc 228 114 74 ff5c ffc3 155 1ff 1bc 162 f9 13b 1cc 2e4 1c9 55 ffcd 99 168 fff5 c1 1e5 1d3 1f8 196 37 143 174 2fd 324 196 95 fff9 1 128 fc 17b 153 1aa 1a6 1d1 245 194 42 6c ec 1a8 be 1c5 22a 2a8 1e3 20f 2a 69 12d 2bc 2b8 11a 85 63 a4 197 109 214 186 261 263 29d 351 188 8 4c 183 1f9 1ae ed 178 1c7 d8 ffdd ff35 ff84 73 1f5 182 51 4b 47 c2 8c 7d 281 265 231 1ea 38e 28a 11 ffe7 70 ffc2 1c4 121 b9 17 91 6f ff48 fdf7 fdef fffc 113 fff2 fff2 a9 190 19a 24 c9 1a7 15c 202 275 3f5 180 192 d3 ff77 ffb0 ffb7 3a ff46 ffa3 42 ff6f ffe4 fef4 ff5e ffbc 99 1b 171 207 1f6 1cb ffb7 1 109 e4 7f ff9c 1c9 27e 116 26 ff42 ff2f 22 ff53 ff08 ff3b fff7 ff02 50 ff30 7 1c 1 be 1c8 213 1fd 219 ffc7 7e d9 ff6a fec2 fed7 ff74 2aa 80 b5 161 60 89 fe44 feee fe4f ff32 fea7 ff24 33 ffbd ffb6 ffb0 93 16b 165 170 11f ffdf ffb3 ff5e fef8 fe9d fef9 52 44 ffc1 ba be 63 b8 ff8d ff39 fe21 feda fefb ffa9 bc 43 fed5 ff5d ff46 6f 1f ffe6 ff72 ffed ffc3 ffe1 ff66 fe26 ff12 37 25 47 8 fffb 10b fd fff4 ff74 ff4f fffb ffc1 184 15a 2c ff95 ff6b ffca ffe2 ffac fe5e fe73 ff0d ffcf ff4b ff60 fe8e feb5 56 7f ffca 1a 39 9a ffcc ffd1 3 5 ffce 21 11d ffa2 fff3 ffa7 ffc5 39 fea7 ff12 fec8 fe75 ff41 ff74 ff88 feac fdfe ffdd a1 d3 1b 0 14 0 34 ff76 ff46 ff34 febe fe5c fd5a fdb0 ff11 fe8f fe61 fdea fda9 fce5 fd72 fded fdc7 feab fe4f fddd ffbb 56 ffef 58 ffc7 39 7 37 ffab ffaa ff9a ff47 fef1 fe1d fcc2 fe12 fd8b fcfe fddb fc10 fcc1 fcc3 fd1d fcfd fd7f fdd0 fe08 fe2d fef5 fffc 2a 1 33 21 37 20 ffe1 15 ffb8 ffa8 ffdd ff87 ffe7 ffec ff8b ff75 feaf fd39 ff4e fff7 ffb6 ffc8 ff62 ffd9 6 ffa0 ffca fff0 ffd2 ffd7 ffbc 3d ffed ffe2 b ffd4 ffcd 17 1f ffe3 9 ffbb 18 e6 a4 ed cf ffc9 2 47 1d 30 ffc3 3 ffe7 12 ffe1 ffcf 8 19 3 32 27 21 41 25 ffe4 ff7f fedd ff5b 1 0 6 d2 13c 1eb 4c ffb2 ffd2 1b 1d ff58 ffdc ffd7 1c 37 48 36 20 ffce 7 f2 7c 86 149 103 29 0 d9 b2 58 81 249 373 1c1 18e 6a 1c fee1 fec8 ff85 66 32 fff0 3 14 10 e3 70 a6 ff7d ff65 ffc5 fe8d ffef 137 b3 fe 5e ff25 c5 195 ff8b fe94 ff87 ffde ff12 ff3f fe91 ff01 6 38 2a 13 ffc4 ffe3 ff09 ffb1 ff31 ff1c fe9b ffe4 ff94 48 3f 18 25 126 11e 9e 7 ffde 3a ffe8 ff98 fec9 ff6a feaa ff9a ff5e ff30 fff8 ffd8 8f 132 6f ffa3 ff66 ff75 ff95 fff0 ffa2 ff3b fe66 ff49 74 ba 1d ff68 ff8a ff6c ff65 63 3e 6f ffed febd 65 ffa5 45 31 ff2a 74 ffdb fec2 ff51 5 ffc3 ffc1 52 ffc4 ff21 ff2a 48 e7 104 d9 98 3f e d2 79 6f e2 fde9 227 d 1a 58 fe8e ff6a fe78 fda7 fe03 fe46 fee1 83 da ffcf ff12 ff95 b4 dc 1bd 1d3 ab e6 122 164 12d 52 ffaa fe4b 12f 28 20 ffe5 ff9c ffdc fedc ff52 fe7f fe91 ff6c 67 8c ff77 ff13 fdfc 3e 1fd 223 222 f5 12e f4 b1 a8 4c ff1a ff43 d2 90 35 c7 13 7b ff0d fffa ffc0 ffaf ff95 ec 6b ff94 fe27 fcc2 fece 1e1 281 152 149 76 ffea 4a 7c ffd5 1e ff8e 24 f1 ffcc 12f 49 2 ffab 49 fef9 fe90 ffcb 6f ffec fdf2 fc34 fc5d fecb 228 248 b8 95 ffeb ffca c8 5c 53 7d 175 e8 10b 35 d7 38 ff70 7c ffcc fee6 fde3 ff12 fed4 fe2e fc74 fb60 fc63 ff00 156 53 fee4 fee9 ff50 ff8f 11 de ca 4e 18f d6 86 ffd9 ffb3 34 23 ffba fec4 fed3 fdf2 fe9b fe52 fd86 fcbf fc3b fd31 fed4 1e ff45 fe28 fdcc fd18 fdc6 ffa0 ffeb 26 ffd8 b4 ff6e fff0 92 17 98 3 4 ffb2 ff0a ff7d ff07 fdc9 fde1 fdb7 fe27 ff00 ff69 ffb3 ffd8 feba fe6f fd48 fdce ff3e ff3a ffeb ffee 11f 6b 9c ffed 24 5a 90 ff69 1b ffa8 ffd1 ff28 fef4 fe76 ff3e ff74 ff84 3a 3d ffd7 fe3b fdef fd4c fda6 fef2 ff2b ffcc c9 34 108 128 8 38 24 49 ff5b ff80 ff35 ff81 44 ff80 ff29 ffd7 ff7b cd a9 1f ff59 fdbb fc2f fbb3 fced ff26 fe9f ffdc 70 ffd3 126 c1 ffef bd d6 44 29 35 ffde 92 15 ff9f ffa1 fff8 85 20e dd 8 fe1c fb61 f9ac fba7 fd92 ffae ff71 fff1 45 b7 19f 125 ffc4 87 ffba 77 60 ffe1 bd 113 ffff 3c 163 10f 183 1b6 ffec fe22 fbfe fa22 fba7 fdd3 ff6a 34 f7 10f e2 262 194 17d 85 65 ff1f fb b0 ff3f ffe2 aa 10e 1d1 1ab 13d 23a 1a0 fe83 fc3e fc29 fcc7 fe64 13 12a 126 1d5 16a ce 2bf 18d f3 d7 c4 7a 75 1f ff07 ffbd d0 12b 1bc 19e 260 2b1 15d fd62 fc3e fe53 66 c0 11b 1f0 c1 174 6b 179 2fb 19d 117 fff4 ffcd 71 b3 4c ff88 cf fff7 157 16b 1a7 207 257 31 fe4f fd8b 18 16e 94 c4 102 ce 15b 10d 1ff 318 1a1 64 f2 ffd7 37 293 bf 1c2 5e b2 ae 146 11c c8 4a 2b ffbf ff41 48 165 102 12c 1b7 203 7f 170 2ae 266 23a 3d a5 fffb 30 1d3 1b3 271 10e 76 11d 155 42 ffd8 9 54 cc ff21 ff70 9 12d 1ba 1c4 20c 116 120 1d3 1f0 107 1e 13 43 ff81 fea4 ffc2 167 19b df ffe5 c9 96 b5 102 9a ff39 ff10 fefa ff82 46 cc 79 fffd 14 15 f7 da 112 2e 1a fff5 ffdc fdec ff57 14e 8e ff9c ffa3 ffa0 41 1c de 29 ff80 fe8e fdd3 ffbd 8b ff0a fe44 ff76 fffc ffd6 24a ed c3 ffce fff5 ffd0 ffa3 18c 16f 97 ffae 2b 4a ffc0 ff84 ff2f fe80 fe8e fe52 fe30 fe58 fe93 fdbb fd18 fefd ffc4 ffbf ff79 cb 39 25 ffbd 31 ffe4 8 ffbd ff61 ff86 28 264 148 b9 70 74 ff99 ffd9 ff3a ff2e fee4 fe6f fe82 ff6e 9 56 a1 106 ffde 54 ffce 1b d 10 47 ffd2 e6 8d 156 16a 137 127 90 124 137 c2 73 85 38 ffa7 ff74 ff73 fffc a4 70 db ffce 2c ffb9 2a 33 ffd9 ffff fff8 ffdb ffe9 ffca fff3 ffdf 2a ffd5 1 15 0 30 6d f ffe6 ffbe ffcf ffc1 2b ffde 1c 18 31 3e ffeb 2a 3f fffa ffb9 34 ffc1 fff5 62 ff80 ff8c ff97 2e 6 fffe fff0 ff5f ffd4 ffdb ff62 ff54 ff59 ffa9 ff76 ffc2 19 ffcc 1e 1a 26 ffec ffef b 28 30 17 ffb8 ff65 fff0 ff95 18 105 50 ff6d ff8e feff ff23 fe49 fe08 fdf1 fe99 ff4d ff1a 62 ffee ffc5 ffd3 26 23 ffe8 ffb2 ffc4 ff6d ff8a ff95 d2 156 187 76 c8 136 13 ff70 ffe1 2d ffd4 ff4b ff11 ffc0 fffb fe85 ffd2 7b 45 fff8 2b ffed ff66 fe6c fe1f fe08 ffaa 6a ffd5 ff9f ff7b 5d b5 9d c4 b8 de 242 1b8 df a9 127 2f ffc9 99 126 169 ffd2 ffe6 fff4 fec9 fefd fe3c feba ff90 77 29 32 ae fe ff8d ff55 ffe1 2b 143 2bf 24c 1e9 1da 284 1e6 ffd1 5b 1c0 c6 ffe3 fffb 21 ff8c fedf feb5 febb ff06 ff8d 4b ffdc 3d 36 45 ffca 18 b0 14d 16c 185 16a c7 a2 ef 51 0 5a ffb3 26 21 ffbf ff28 ff6b ff2e 0 ffef 5e a5 52 b0 4e ff67 ffac 1b 139 149 b5 161 6c ffcd fff0 ea 5a ff5f ffd8 ff6e fff8 fffb ffe9 fe80 ffc8 4d 46 4a 24 ff8e fff6 25 ffc4 ffea ffd8 72 62 1e0 150 9a 7f 6d ffb1 11 124 12a b3 be 176 ffed ffc3 fe85 ff3b fffd 43 ffb7 ff39 ff27 ff57 69 fffb ffc9 35 ff5b fe68 73 f6 a5 c1 2d ffe0 6e 1a7 21e 2de 1ee ffb5 d ff27 fef9 ffcc ffe4 ffa2 0 ffd3 c 2 c7 8e c6 fff1 ff38 fe82 fec9 ffe1 66 9b ff42 ff70 35 1e5 1ee 19d 18e ff8f ff27 ffa3 feb4 ff1f feb2 fe8a ffe0 a4 4e 65 ffd9 d5 ffca c fef9 fe3c fe08 fec3 ff74 15 fe89 ff5e ff03 69 95 169 1e4 ff5a ff29 ff1d fe0e ff50 fe29 ff5f ffc8 37 21 b9 27 ff99 ff8f ff69 fe6c fd59 fd3d fe8f ff9d 57 ff61 ff92 fe04 fee9 ff61 ff90 3c ffde ffbf ff06 ff22 ff00 feb3 ff26 ff0f ff6f ffb6 1e ffae 45 fff5 ff7e fe32 fdd5 fdc8 fe56 ff86 ffd5 26 ff2f fe0b fe9c fed3 ffbd 4f ce ffb8 fec4 ff50 ff01 fe9e ff45 fea5 ff38 ff48 ff2d ffa5 c1 a3 6c ff93 fead fdbb fe23 fe87 fe65 ffa4 fef0 fe10 fead ff6f ff52 20b 103 ff88 ffa9 fe59 ff1f ff90 ffb7 ffaa 0 ffaf ff62 ffa8 163 137 28 ffbe fed4 fe40 fe09 fdd5 fde9 ff48 feff fdbb fe0f ffbd ffd2 117 127 ffd6 ff61 fe30 ffe8 feeb ffc4 fff8 ffec ffc0 ffe6 c0 19d 173 ed 77 ffb6 ff69 fdd8 fd48 fdf4 fee6 fefb fe7b fedf fefe ff 273 134 ffea ff4c feac 29 ff99 fff9 6d fed8 ffe2 2d c2 12f 74 ff92 5 ffa9 ffb7 fe21 fd21 fe65 fef1 ff7b ff28 ff84 1c 1d4 119 172 ff93 51 fe9f ff54 9e 20 54 ff9e 24 ffdf b1 ae 1f ff76 ff0f ffe7 17 fec9 fe55 fef0 fed3 ff13 ff65 81 167 1d1 c7 be ff82 ff93 ffb1 fed1 e8 ffdb d3 9 33 ffdd 8e 4 ff80 ffa5 ff31 30 7a 8b 66 ffb3 ffa7 fefd ff87 ec ea 121 156 ec fff0 4a 60 fffd 138 121 16a a6 a0 8c ee 23 ff70 ffa0 ffdb f6 127 c5 83 c 6 ff48 21 145 91 c3 66 ffd9 1c b 1 153 4e 57 13c 91 59 132 57 83 ff6c ffad 60 c0 77 c9 85 99 67 54 1a2 290 110 185 73 2c ff92 ffcc e3 297 5e 67 92 92 137 1ed f0 1a7 91 a4 a7 84 fe 11d 252 1bf 12a 140 269 318 1a2 1d5 ff8d 7d 11 fff4 ffa9 13f 6a ff8f ff49 ff85 13c 1ab 27d 2ea 27c 1e2 1ce 1df 2a3 2ba 293 264 24b 244 2c0 3c1 154 201 ff87 fff0 1b ffe8 ff72 feaf fed0 fe58 fdbc fde7 ff61 103 de 1dc 333 2ff 2f4 2a5 2a3 295 433 351 247 d9 cf 1af 2c9 ffcc fffe ffc0 c 6 ffe3 ffd0 ff2b fe26 ff21 ff92 feb0 fe6f fefc ff6d ffb4 107 65 fe 8d 93 160 19b 17f ffef ff82 12 65 18 9f 7 ffcc 25 11 31 ff7c ffe8 ff8f fe5d fe14 fda8 fe48 56 fff1 2b fec7 fd62 fd46 fdbf fdc3 fed3 ff28 ff03 fffa 1a 4 ffe3 6 30 ffee 21 3a 32 ffe1 fff3 ffa2 ffb3 fed7 fe3e ffca fff2 5 ff4c fe46 ff27 fe9c ff47 ff7d ff2f ffa4 ff62 ff61 ffcf fff1 ffc7 ffdb 3e fff1 12 15 ffd0 e fff5 1 f 7 ffe4 fff2 36 ffb4 12 6 ffde ffd7 35 5 28 3c 45 16 43 ffd6 fff8 ffdc 36 fff2 44 ffcc ffbd 19 fff5 ff33 ff1a fe79 fee7 ff60 fecf febc ff07 ff26 fee0 ffc4 ff29 fea3 ff38 ff4e ffb4 fef5 ff35 fffe ffe8 32 ffe6 7 2a ffee ff81 ff52 ff54 fe99 fe93 fd46 fcce fc72 fbea fc69 fd1b fda2 fdfc fe67 fecd ff7b ff32 ff40 ff1b fe50 fea5 ffe6 16 ffee ffd5 ffd8 16 37 ffc5 ffd1 ff47 ff7b fe72 fd4d fc6d fbed fc66 fd20 fe3a fe9d ff12 ff9d ffcd ff3b ff1d ffc1 2e ea 23 ffd1 ffe2 3e 31 d fff1 f1 ffb2 ff87 ff48 53 6c ff4f ff3e ffc1 126 ffd6 ffa6 ff29 1a 58 38 ffec ffff 50 d9 80 174 1fa 171 5d 33 ffbc ffd4 ffc2 ff6d fea5 ff4c ff73 fed4 ff8a 6b 102 49 ff5a fec3 ff84 ff88 ffb8 ffc8 ff0d fe3b fe9c 15 109 1a8 1a1 21f 10a 33 ffb7 ffcb d0 ffb1 39 e7 ff22 ff8d 7f 128 55 ffad ff18 feb9 fede ff5f fea4 ffd8 ff33 fea8 fdb9 fee5 ea 184 1e5 208 2ed 32 59 86 155 1b1 fee2 ffa2 ff38 87 122 152 fc ff5b fe4b fe88 fed8 17 2c b 40 ff99 feb1 74 1d2 267 17b 1d5 377 d8 ffe7 16e 34a 16d ffe7 90 10d e3 15a 1a2 88 ff05 fe23 fdc4 ff2e 2e ff88 4 16 ffb1 d9 14c fa 25c 332 3d1 251 48 147 1f2 63 94 fffc e4 ed 18b 23d 1ba 72 ffa5 fcf3 fc9b fe41 fff9 57 80 186 a8 13f 1f4 101 119 29f 357 3b4 183 117 280 ffd2 ff4c e8 e6 178 273 302 3b0 1e8 ffb2 fd5a fc78 fd93 0 16 ffc6 8d 108 15b 1af 1b8 ffdb 250 3b1 525 10c 17d 1ed a8 ff2b 91 17f 1ce 290 2de 4e9 396 1e4 ff9c fd59 fec8 1c d fee7 fff4 6e ff9a 44 eb 5b bc 208 390 141 f6 213 e7 ffcc ff7b 1aa 185 282 305 293 30f 25e 5f fe44 fdd6 ffaa ff8a ff18 e 34 ffa4 ffdc 84 ff8e ffa1 9c 286 ffa4 19 253 12a ff6b ffe2 1f7 135 1da 1a4 29d 289 255 79 fedb fec4 ff6b ff2b ff6a 6e f2 19d da 138 ff6e ff26 ff27 1f ffae 7e 12f fe 48 51 1d7 1a5 19a 15b 1c0 247 1c2 24 ffc5 fff7 ffaa 44 71 6e 15d 7f c 8d 61 fece fe9c ff49 ffdf 63 79 114 1e4 39 c3 cd 57 94 1d9 167 107 12d fffc ff9a fe94 fefd ffd5 ffa2 fffb ff28 feed ff22 ffbb fdff feeb ff8e b3 c5 fffe ffc2 11e ff05 fec1 ff5f feaf ff86 ff58 ff4f fe86 ffce ff0d fe53 fed6 ffd9 ff9a fed1 ff49 ff2c ff15 ff19 ffdd fe45 ff20 fecc 30 16 27 ff5a 4e ff6f fed3 fe77 fd36 fdd6 fee1 fe93 fdc4 fe8c fe59 fe96 ff35 6b ff85 ff8a feac ff64 fed5 ff15 ff5b ff51 ffc0 47 54 6 ffc6 fea1 ff49 ff06 ff68 fe09 fd86 fee3 fee1 fe75 fe89 fea0 ff1f ff1f fe5e ff23 fe7a ff21 ff46 ff1b fe7f fde1 fea3 49 ffac 71 2c 15 e8 feab fecd fe80 feeb fe7a fe5e ffbb ffbb fedd fe25 fe2f feec ff22 ff28 fe7a fee5 ff61 fec9 fe95 fe8c fe2c fe90 95 5 45 ffcd 45 d0 ff5f fd6f fe67 fe8e fec4 ff38 52 ffb5 ff32 ff42 ff27 ff6e ff70 ffc1 fea9 ffb3 fffc ff19 ff0f ff88 ff64 fee7 55 ff97 ffe0 fffa 41 ffa6 ff56 fd95 fdde ff7e ff49 3a 15b b9 21 6 ff96 ffac 77 f ffa0 aa 76 ffa9 4d 7e 9 ffee 103 fff1 ffe1 ff94 23 3c ff4f ffb9 fee7 fe80 ff78 ffe2 7f 29 4e ffcf ffb1 fff2 b5 26 41 109 bf be fffd ac ff2c ffc0 1d2 f2 90 ffed ffd1 30 ffd9 fff8 ffce ff3d ff9d ffdd 96 7e 40 ff62 ff53 ff6f ec 65 fa da af 81 45 5f ffcf 1f 11a 19 c1 ffdb 25 46 a 49 fec4 ff35 ff35 ff39 26 d8 ffcc b3 ffca ffd1 e 36 16 4e e3 1fe 136 c9 e2 ffb6 ffe4 ff50 ffc8 ffc0 1d ffe8 ff85 104 fff0 ffad ff6c fe11 fdcd feab ff56 ffa0 ff60 9e 1aa 22c 145 1ab 156 fff2 ffed 13c 1cc 162 f9 ff6a ff8f ffec 34 1e ffdc f fe73 fef6 fe8e fd08 fdf4 fea9 feca ff0a ffa8 51 fea8 ffbe ff30 ff1f fef6 ff59 ff3e ffe5 169 34 ff8c 70 6 9 ffec 3e 32 1d 169 1b8 43 18 7f b1 8c ffc1 ffce 175 fe97 6d fff1 8f ff8b ff2a 11 ed eb b5 ffe6 ffba 42 6 fffb fffa ffd6 1c ffbf 47 b fff7 ffc9 ffc7 c ffe1 5 4e e5 d4 4 ffcb fff7 ffdb ffe2 22 ffec ffdf ffe9 31 f ffcd fffa 20 2f ffc7 3b 77 32 40 ffba ff64 ff5c fe7c ff76 fee5 fff8 c6 134 ffd5 feec ff48 ff67 8c 69 a7 ffeb ffcf 23 2b 0 18 40 ffc3 ffca fef3 fef9 ff2e ff72 3f 82 7f 167 186 10a 148 c2 ff76 ff63 feb0 fecd feec ff37 ffc7 6c 6d ffdd 3d ffbf 22 e3 53 ff85 fe74 fe9e ff09 c9 b7 b8 12d 243 1a7 137 ff 191 149 189 e2 15c b7 ffe5 ff27 feed 6 ffe1 ffe0 9 8f ff 1ec ff53 ff1c a 2f fffa fed5 feed ff86 ffd9 ffd6 8c fd 1d0 179 15d 18f 184 b0 de fe35 fdf7 53 2f fff6 18 25 142 3f ff69 12b 91 1f fe8b feb4 fdde fe28 ff45 ff5a 11 6c ca ff98 2 23 f0 1bc 147 ff8a fefb 44 19 ff4e 40 cd 198 165 44 17b 11b b1 d 26 b4 fff1 ffd6 27 ffcd fff3 ff62 ff29 ff18 ffa6 ffd8 120 237 73 ff88 a3 ff94 118 34 21c 189 17e 126 152 23d 1f3 bd d9 1d3 14e 18a 13c 12 ff9a ff1b ff48 ff96 ffd4 ffad 6c 1b9 e5 c2 96 c3 18c 8d b0 11a 19a 13c 105 15f 29b 16f 1bd 1f1 1ed 23b 15b a4 ffa8 ff23 a2 5a 4d 92 58 2ac ab ff30 3f 308 c3 3a ab 76 14d 116 fff8 d1 1c8 1bf 174 ee c9 68 ff36 fe84 feca ff98 b8 58 32 c7 150 19d 92 febe 126 2a3 c9 ffed fe ffb2 ffb4 53 ff49 6a de 98 ffff ff43 fed5 fdf4 fd46 fe7a ff28 54 ac f0 d9 e3 ea ce ff08 fe25 ff6d 9a 197 55 8a 33 ffd9 fe9f fde8 fef2 ff50 fe3f fcf1 fc75 fcc9 fc8d fe33 103 cf 44 35 fff1 fff4 64 f ff9c ff52 ffc5 197 10b 118 79 137 ffe7 fe7c fd0f fc34 fb00 fbd8 fba1 fb72 fc8c fd1f fed1 4b 1cd 1a1 8e 25 ffe1 fffb b2 f2 ff75 ffcc 258 3a9 15e 167 ff5b ffa4 92 fe48 fba8 fb94 f961 fae0 fbee fcf2 fddd ff0a 5c 1a0 1c3 4b 9d fff1 ff90 ff9c 66 5b fefd ffbc 198 25f 247 13e ffd5 e7 cb febd fd55 fcc4 fcd3 fcd1 fd6b fecb ffc1 11b 213 279 155 96 33 b ffa0 34 4c 32 34 4a cc 169 254 12b fff0 a1 105 ffd4 39 ff61 ffe3 fef7 ffeb aa 135 290 2c8 29c 1b1 9d 3 23 64 10 ffcd a7 10d 10f 13a ffe1 12b ff 6 166 20b 28f 16b ffcd 30 de c8 1d7 2bb 285 287 1b6 b8 ffe9 9b 49 98 90 ff4e 74 40 191 18b 37 177 b0 ffc5 115 23c 26d 1b1 23 98 79 127 210 223 2d9 207 81 ffb8 ff67 ffd6 ff7b ffb1 ffd0 fe7b ffc3 ffa1 14f 1fe 2f 185 18 ffb2 a6 28e 29d 102 be 4 3c be 1e4 29f 198 dc ff5d ff0f ffac ffb4 ffaf ffb8 ff95 fe56 fe6f ffb8 a8 136 1a8 194 3d ffeb ff6e 59 18d 1d0 e7 5a bc 14e 273 1bd ff8d ff0e fefb ff0d ff56 ff75 ff32 ff96 ff70 fe5b fe72 ffc9 f4 111 1ea 1f5 89 6 ffa1 0 186 20d 71 8c 1e6 1e4 11e 91 ff7d ff40 ff6a fe9f fe87 fe61 fee6 ff97 ffa3 fe79 fe62 ff96 94 6d cf 152 25 46 b0 162 19e 1dc 6b 15d 1d2 117 91 3c ffb6 ffd0 ffcc fea1 fe08 fe95 ff25 ffdf d ff14 feba ffb4 0 ff64 d0 ff41 b 31 56 163 ffa7 1b6 21e 103 161 a9 29 ffcd ffe2 4 ffc2 fef1 fe91 ff89 ffa8 ffb1 be ff83 ff1f fff9 ff9e ff37 d6 ffeb ff9a 20 ffeb 123 ffac ea d5 e2 50 ff89 fff3 ff67 5f c9 128 58 98 82 ffaf 3a ff54 fea4 ff33 ffd5 c ff5d 6a 1e fff2 2 37 c9 1f2 e9 65 3e fed2 fefd ff6e ffaf 22 6c a4 ee 78 5f ffcd fd6f fe63 ff1a ff47 fe4d ff57 ae 7a d9 45 3d ffd4 ff0d 136 ffa6 ff4c ffa1 23 18 66 8f 2e a7 e5 67 1a ffd6 fe5a fdff ff41 fec8 fe18 fe17 ff14 ff5a 30 84 fffc 3b ffdd 33 ffc6 fe5e ff09 feff ff8e ffd6 ffcc 87 53 ff43 ff73 3b 0 fff0 ffbd ff7b ff3f ff1c feec ff88 5 ffc4 5c ffc0 ffe3 41 ffee ffea 40 63 70 8a c8 19e 26e 120 d5 151 140 10f 1cd 1ab 89 3c fff9 16 ffdb ffde 16 fff2 ffef 12 19 10 41 43 ffe6 ffe6 e 43 1f ffd6 fff5 18 ffc8 41 ffdc 17 36 15 ffc0 ffea 2f ffbd 16 3e a 32 38 ffcc 31 fffc 9 ffc4 ffe3 6 ffb8 8 17 2 ffeb ff30 ff09 fffb ff46 34 ff8f fd54 fe2c d7 1a1 117 ca 12b ff8e fff8 21 ffdc fff3 fff0 fffc fff4 19 6b e0 14 fefe fee0 fdfe fe70 ff03 ff37 ff43 ffac 9 3d ea df 17f 51 2f ffdc ffcc ff33 ff1f ffec ffb8 ffeb 2a 6b 46 18a 29 30 ad ff3d fd92 fd64 fe43 ff3c fee1 ff3c ff98 ffb8 ffee d3 59 b5 f6 4a 46 8 1 ffda 39 34 fff7 ffce 1e ffc3 5f 4d ff82 fda4 fc69 fd28 fed7 ff76 ff78 ffc1 1d ff6c ff9c fffb ff9f 5 c7 75 1a4 222 236 203 14d 1a 3f ffb4 49 ff8b a3 0 ff8d fd90 fed7 fef6 ff65 45 47 47 4b 14 11e ffba ffde 3 fff7 12 78 169 202 242 174 ffce 3a d ffbb 6c a6 91 ff78 ff0d fef4 ff99 36 2c ff6a ff5d ff8a 1d 6b ff89 45 ffe4 ff21 ffdf 175 237 14f 1f0 46 1 ff57 24 6f ff9e ffd0 ff9f ffd2 fe54 fe81 ffc3 ffe8 ff73 ff11 ffdc ffe8 ffbe 9c 17 4b fffa ffac 22 1fb 18d 14d 1f5 97 fff6 ffd3 38 11b 1b ff89 ffc9 ffe0 fd7d fdef ff0f ffc8 ffe5 1c 3b 82 21 fff6 c0 ef c3 157 19f 15b 406 3aa 1f9 1d9 14 ae ffb5 20 ff82 fecf 25 fefe fe0e fecd ff4e ff9f ffe9 db 75 ffbb ffe5 8f 5c 103 114 1b1 157 1d0 524 527 27f ff98 78 e9 8d ab fff5 fe9f fe6d fdc4 fcec fe21 ff48 ff90 f9 1c5 18c 110 42 67 c1 138 123 f5 1c9 2d4 411 428 2ea ffd6 c 46 c0 1d9 b2 ff51 fefc fdc1 fcf7 fdf0 fee5 5 1c4 2f6 315 228 121 15f c6 36 46 ffdf ffe6 243 311 34c 2ee 81 5 a7 b7 18b 10c ff90 fe53 fd1d fc96 fdfb ff86 10d 1f3 2ed 361 303 a7 ca 1b ff22 ff65 fdf1 fe2f ff33 ff08 ffbd ba 2f 38 c8 67 1a1 e3 ffe7 fd2f fc06 fd03 fef3 ffb8 147 205 1ab 250 21c e5 32 ff29 fefe ff13 fe63 fd41 fd21 fd70 fee8 ffc5 47 db 13d 4a 158 39 b fe68 fcb7 fdac feb2 5 f1 17d 1de 18b f6 2d ffa2 fedb ff34 ff6a ff27 fd2d fd0a fd5e ffcf ff8d ffd1 40 e9 c0 113 82 104 1d fe46 fe88 fdc6 fead ffda 1ec 1a0 1ab 0 ffcc 69 47 ffd5 ffec ff0f fe17 fe4e fe30 fea7 fdb5 ffdb ffba e9 60 e 130 1be ffb4 fe6e fe66 fd60 fddc feb4 70 fc d0 aa 28 70 e7 3 ff0c fd0e fc88 fd44 fd50 fe45 fe8d fe8e 41 3f ffaa ff87 fd 140 84 4f ff09 fec5 fe19 fe98 ff2e ff83 8e c8 c7 139 ec ffa5 fe7e fc92 fc97 fe79 fec3 ff80 ff33 fef7 ffcb 68 ffe3 ff33 63 8d e0 f2 ffe1 ffc5 ff36 0 ffe0 5b f4 c3 e8 11a b8 ff26 fd2e fc11 fc3e fd49 fe41 15 fff0 ffa2 f1 db ffe8 ffd5 6 6f 12a 77 27 fffe ff90 ff9d 1e d8 e2 8e 8e a4 35 fdf1 fc0b fb74 fbbb fc4c ff2e 7e 3 ffbe ffea 6c ff9b fee5 fed2 3e 6b ffa8 3b ffd5 31 4 2e 95 a7 5e ffec 51 fe79 fcc7 fba2 fb7a fc9e fe01 ff41 ff34 29 84 b3 22 ff55 fe9b febc ff5b 62 15 27 ffb9 20 e0 84 a2 8f ffe9 feea feee fd26 faff fbef fcd2 fce6 fe2b ff3b ffb3 ffea fff3 88 ffed c fe2d fec5 ff24 ffd5 ffff ff43 ff81 9f 166 146 e9 ed fff3 fe6c fd49 fb67 fb62 fb25 fc28 fd0b fe21 ff25 fed8 ff93 ffcf ffdd 11 116 ff00 ffbf 1e ffe8 81 50 4b b0 80 126 f4 15a 35 fda0 fbc6 fa3f fb7d fccc fe20 fe68 fe60 ffa3 ffd5 ff28 ffea ffc2 ffe8 d6 186 9f 1e3 1aa 122 eb 11b 113 141 1d7 230 c9 ff80 fd6b fb74 fb50 fca9 fe4d ff24 ffd9 ff4d ffab ff3c ff87 14 ffb9 fff5 39 23c 50 67 a3 13e 1ea 2dc 291 26d 137 35 fe91 fe31 fd73 fd18 fde4 fe5a ff7a ff53 fffc feca febe fffb ffd3 25 2d ffcd ffe2 ff33 fec9 fee7 fef8 ff2c 23 ff09 feca 4b 47 4 fda8 fd85 fe5c fef7 ff7c ffc5 ffc1 fffa a3 ff9c ffaf 68 ffde ffbf ffff 2c fff4 ffbd 2 db 90 48 c9 2b 1f c1 83 146 ffb6 ff90 ffd8 ffc1 ffea 50 23 0 ffc5 ffda ffc4 2 37 39 ffd4 ffe5 ffe3 ffe0 ffdd a ffe3 3d ffd1 ffc2 13 23 ffab ff94 fff7 fffb ffcf 3d 3f ffc9 ffd6 19 24 ffdd 0 29 c ffe4 2b ffc6 ffca ffd3 ffb5 e ffff ffa1 fff5 ffc0 ffef e8 ffc9 110 178 12b 80 ffde fed3 fe67 fee9 fe9a ff32 ffb2 ffc0 ffde ffd9 e ffca fff5 1a 67 ee ff40 7a ff74 ff43 fe8a fde5 fda5 fe26 4e ffd5 ff17 ff7a fe2d fdcd fdb4 fde2 fd6b fe75 ff27 25 4 47 40 16 ffc0 fe 42 d7 feca ff01 fe31 ffa8 ff70 fe55 fe7d fdf1 fd81 fd49 fe89 fe5d fe85 fda9 fdc4 fe3e fd8e fd51 fdcb ffa3 fff9 ffa7 fff9 2d ffe0 37 ffc0 ff1a fed8 fe91 fdd6 fdbc fda6 fd2b fdbb fdeb fe23 fe76 feaa fedf ff74 ff74 fdfa fd83 fe05 fe5e fe5a ff39 d2 7e fff0 ffca ffdc ffba fee7 c ff77 ff12 fe7e fe9e fdc1 fdb4 ff29 ff8d ff03 fdc3 fd86 fddd fed8 ff09 fed3 ff01 fec1 ff05 fdac fe7c ff77 57 ff9d 33 ff5e bd 10b b9 ff4f ff45 feef fec0 ff56 ffe9 e2 a8 da 101 a3 c6 c2 1a0 ff aa 3 fed5 fe8d fed2 1c e4 57 88 ff7e e4 eb ff31 feb1 ffff fffb ffe4 3c 106 de 293 275 1e6 24d 30b 294 234 18d 100 a9 ffe1 8f 34 6d c2 da ff3c ce 93 4 feb8 fed2 20 ffe8 b8 b5 151 18c 255 183 1c0 1e4 321 245 259 18b 152 ae ca 211 3bc 2d7 121 231 10d 119 fffc fff9 ff32 ff60 f ffa7 75 e1 1d0 18b 18c 14c 164 172 17a 210 1e9 133 fff8 22 d5 1e6 4ae 534 30e 161 14f 118 ffc2 ff4d ff7e ff96 ffbb a 77 12d 1b2 13b d2 83 1d8 182 1c5 2a f1 a0 c3 bf 218 290 436 52c 486 121 1f4 43 1d8 86 d9 1a f7 98 109 76 64 ae ffd0 18c 2ea 22d f1 ba 5a fff4 124 119 2b8 2f0 352 3cf 453 124 e6 8a 1d4 205 22d 138 e0 af 7a ffe1 ff9d ff25 fe60 a3 2b9 1e7 ffeb ffea 7e 18 75 fd 1a5 155 ff1c 101 2df 144 ff56 17c 173 239 223 e 36 7e ffec ffb4 ffa9 ff82 ff61 f5 1bc 7e ffdc ff5e ff61 5f cc f5 6b ff14 fef9 71 171 ffe7 7b 10c 10e 218 c3 fed9 2e 1f 4e 82 52 ff80 ff1c ffdf 0 2c ff63 1c ffce ae 139 77 ff7a ffa1 62 ff4c 14b 47 30 ff83 fdf1 ffe0 67 fff1 66 9 9f d7 91 38 ff7a ff9f ffba ff28 ff48 ffd9 f5 41 d1 ff96 ff49 80 92 fec0 fe90 fee9 fffd ffa0 fe76 ff6a 90 dd fff8 15 f1 93 6e 3e 90 fffc ff9f ff9a ff2c ff8e ff18 fef6 ffae fed8 ff60 ffae ffe1 fdc8 fdd0 ffca 1 ff32 fecf ff43 ff00 10c 8c ffad 99 8d ffff 53 89 88 ffd0 17 ff9f ff41 feed ff43 37 ff99 1c ffb4 e5 fe5a ff2a 8a 151 ffb7 57 fc92 fe33 ffe8 ba 127 b5 18 3d c1 28 59 71 ff89 fef9 ff89 fed7 ff6b 40 ff25 56 feea fed2 ff12 a7 ff38 9 102 93 fc2a fe0b ff5e 95 81 1f ff41 ff20 feb4 ffc7 49 fef8 feee ff21 ff4b ff52 3c 24 fea3 ff06 fef1 23 49 fea2 ff4b fff9 24 fe92 fc93 fe1d 8d 28 ff44 ff75 feaa fe60 fe2d feea ffe1 ff1a fec5 fefc 3b fff0 46 ffdb fedf ff68 ffd8 e8 12b fdf9 67 ff82 fef4 ff1d fd68 24 c5 18a ffce fec4 fe0d fe2a fdc4 fe7b fe72 fe9b feda ffb4 ff84 ff45 50 4b ff64 fed4 fef7 101 12d fe52 ffc6 ff55 ff50 fd8e fe8b 90 54 1a9 15b ff9f ff00 ff33 fef4 ff1d ff17 ff93 ff61 ff9d ff6c ff47 fe78 ff90 fe77 ff30 11a 1e2 11 fddc ff96 45 3d fdb5 ff8d de 5e ffd1 38 43 ff6a 27 33 ffd3 ffd6 ff73 ff8b ffc5 ff89 fe35 fe45 ff3e fefa d4 1df 18f fffd fdc0 ffba 11 ffd9 ff44 1e6 b3 169 ff89 d9 af 73 d6 ea 12c 11e ffd4 84 ffe1 ff99 fec1 ff82 4d 31 10f 24e 15b fee2 fef0 26 ffd7 19 3b 15a 143 1a5 ca 1d2 18a 145 11f 1f0 1ed 17d 1ba 1f0 2cd 274 1b0 269 275 2bb 24c b5 173 2 ffa6 ffd7 20 37 11 105 118 19f 246 2e1 3b2 452 373 3f2 4f2 578 670 49e 4fb 4cc 443 3e5 4f9 4d4 31c ef 29 86 7 ffcd 3 13 27 1e ff37 ff4b 60 12b 13b 1bd 243 2e7 2a9 1ed 434 1f9 2e5 394 29e 22c 152 dc e0 4b ffcd 7 2 31 17 ffd9 ffba ffdd ffe5 ffc3 2a fff3 ffeb 19 fff7 3d ffbe ffd0 21 22 29 2c fff5 ffcc fff5 f 44 31 fff9 ffd8 fffd ffd4 ffce 13 ffca ffc2 ff9e ffa5 b 3e ffaa fe8f feaf ff16 ff62 fefb fef8 fe76 ff51 ff41 fecd ff6b fef3 ff27 fe89 feed 15 2c ffcb 2f ffc5 36 7 ff60 fedb fef8 fed8 fea2 fe95 fdee fd95 fbb7 fbb2 fc0d fd21 fdfd fc99 feba ffa3 ff51 ffac fecf fe00 fead ffb9 ff97 ffdf ffbf 45 21 ff8a ff7d ffbb fea4 ff38 ffe6 fe97 fd50 fd38 fcd6 fd18 fcc0 fcb7 fdf2 fdb1 feec 87 58 12a 16d 15a ffba fede fefc ff7a ffce 2d ffe7 fff2 feea ff5e ff7e 2a 4d ff61 ff8e 26 ef cc ffbf 1e ffc2 ff91 ffdf ffb2 ffab 13 89 19b 257 217 190 f1 ffc3 ffd8 31 ff99 feb7 fee5 feef ffcd 89 ffd4 ce 192 ef 94 ff64 ff5c fea8 ff57 ff5c ff7a 3c f7 11f 25e 167 169 235 74 ffba 39 18 ff3e fe0a ff02 ffd1 ff9c 114 168 105 117 7a 10c ffbc ff1f fdde fd48 fe8c ff5f 73 ffea ff75 130 1ff 1e7 27d 23f 2b 1b fefd ffac fe8c ff29 103 3 9e 1cb 17a 1bd e4 80 ffdb ff06 fe2c fdd8 fef7 ffc1 23 ff83 c7 1ba 1b3 1e2 268 324 46 ffc9 ff73 ff61 fff9 ff15 ffca ff84 4a 26 17b 184 cf 55 ffaf fec9 feed fea6 ffcd ffbb fffa 8 113 c8 d1 165 3e4 364 91 ffbd ff3c ffa9 ffd5 fea2 feb2 ff96 ffe5 e9 1a3 fd 10d ffc8 fe74 fdb4 fcf6 fee1 ffc5 ffda 1b a7 181 d7 13e 175 1fd 263 ffda 43 ff78 ffb1 fe4f fedb fed3 ff59 ffda f4 19c 178 e9 d3 fedc fcea fc50 fd4c ff28 fff7 6 ff80 4 ab 13b 13a c9 17f fffd ff91 ffdf fef9 fdd7 fef2 ff2e ffed ff97 29 115 ef 108 178 fff9 fe36 fca1 fd57 ff09 ff7b 76 feeb ff4d 54 193 17c 15a 2d2 ff8c ffa8 ffd8 feda fe2b fe5d ffdd ffe9 ff89 fffe 7c c7 125 350 245 ff14 fdcb fe7b ff5e 6 16 78 d9 89 115 273 b7 13f fec8 22 ff66 feed ff19 fe0a ffb8 ffa7 ff92 ffd1 b6 23 188 307 158 ff78 ff68 ff18 2d de 2f 97 23 fa ffaa fef1 ff3b 11 ff97 5f ff65 ff97 ff48 fe4c 2 ff8d fea6 ff08 ff0b ff91 c4 15e 16a 82 ffe8 ff71 b2 fffb ffaa fff2 56 fec0 fe77 fdf7 fe5b fe5f ff5a fffe fff0 1b ffe8 ff05 ff25 ffb3 febe ff63 ff16 fff1 1d 150 14e 132 ffd3 ff37 ff36 ff80 ff6c ff43 ff1e fe6a fe5d fed3 fdc1 fe86 ffe4 ff28 ff52 46 ff10 fe87 fd8f fee9 fe5d fed7 feb7 ff1e 28 144 1b0 e1 49 ff50 fef4 fe3e fed8 ff11 fe4d fe95 ff66 ff29 ff00 fe76 ffd6 fff8 ffc0 fed9 fea7 ffa0 feab ff9c ff0b fea9 fef6 ff69 fff0 116 10a 128 ffe2 ffbe fead fdfe feb7 fee2 fe9f ff25 7e 6d fe9d fed3 ffbc ff3b ffb8 fed9 fee7 51 e3 2b fea7 3 4a 0 58 122 137 56 ffc2 ff2c fe12 fe08 feb7 ff6e fed5 ff2c cd 1f1 fef7 fee8 fef9 ffb8 ff83 ff16 feab ff50 fffa ffc5 ff2b 68 a 60 5 43 7c ffbb ff4f fee0 ff03 ff09 feb4 ff3c ff1e 34 166 229 ff24 fead ff58 1 ff67 ff1c fdce ff11 ff12 ff69 59 9b c4 78 ffcb ff4c ff5b ff68 ffc9 ffda ffce 24 ffe3 ff8f ffe9 137 109 ff2b fe67 fef0 fff2 ffe4 32 ff8d fece fefb ff5a 8d 71 ffde 26 ff36 ff5d fecd ffbf fffa 17 ff9c ffc4 ffc5 29 10 be 11c d9 ffd9 ffb5 ff7f ffb5 43 13 ffec c5 c ff9d ff2c ff45 fecb ff23 feea ffa1 ff41 4f b6 ab b4 10a 131 173 84 7b 37 129 78 1d bd ffa9 c 27 94 d7 35 ff6e fe50 fe32 ff3b ff8c 6f a0 193 222 228 20c 2c8 260 4a 10b ac 87 a6 127 38 e8 139 ffbd ffd4 39 fff6 16 fe4f fd64 fd70 fdc2 ff51 1f 16a 1d0 2d4 2dc 340 235 2e9 136 91 9d ad 60 1f3 9e ffa3 ff08 ff79 fff3 22 ffd0 15 b1 ff5b fe1b fd99 fe59 ff27 0 168 1a3 101 17e ee 134 1e4 dc 34 ff6b ff21 ffaf ffe9 6 ffb8 ff53 fff4 ffc1 e 24 e fff1 ff26 fef3 fd47 fdb2 fe21 fd83 fd7d ff39 ffa1 fdf8 fc4d fd94 ff73 ff2b fe68 fd74 fe57 ff09 ff3c bb fff1 a ffff ffea fff5 ffe9 fffe 26 fff8 ff8d fe6e fe96 fdc6 fd79 feaf ff6d ffd7 fea2 fecc ffcd ffac ff62 ff10 feed ff7e ff63 ff89 ffa1 17 3b 7 1b c 2d 46 1c ffed ffcd 21 fff9 ffdf ffd9 fff5 ffd5 7 c fff3 ffcf fffc 17 2c ffe5 ffc0 ffc4 ffd0 ffd8 ffbc 2e 3d ffdc ffd3 1f 19 ffd3 fffc 8 ffb2 ffe0 ff8e ff71 ffba ffa4 ffcf ff7a ffaf ff81 ff57 ffa0 ffa7 ff3e ffa0 15 36 ffc8 fffd 1e 3b ffd8 ffc2 ffc2 ffba ff9b 5f 2f ffb7 ff2c ffec f1 4b ffa6 ff6c ff6b ff4d ff96 ffdc 34 102 84 37 ff94 20 ffd3 fff4 d 24 14 27 ffba ffc1 ff84 ff99 145 106 138 1fb 1ec 23a 16c 167 17e 26a 2a0 1d2 25 ff0d ff6a 9e 65 ffc9 ff0a ffdb ff0d 3 2 16 ff50 84 9f fe99 80 af 116 f4 172 188 235 13e c8 e3 20a af 107 1b8 df 91 13d 5d ff6e ffd3 c 1ae ffc1 1a a 58 52 ff76 158 df fff8 86 107 105 17f 1d9 1cf e7 ea 120 11a 1ae e5 10b 91 cf 4b ad 1ea 196 11e fffd a1 21 53 1 11f 117 2b d4 6c 3a d9 e3 15d b5 62 5c 98 80 4a b2 80 99 ffef 6e 1f1 2e4 26c 26 1c9 6b fff0 ffa0 ae 2a ff63 ffee ffb4 57 e4 fc f9 f0 fff8 c8 b7 26 4d 129 1c 47 ff6b ff9f 2ce 3a3 206 ffee e0 61 fff1 fea9 fefe fee0 fe8c ff86 ff3a ffdf f 7d e6 1a8 106 75 8c 5e b 137 14d 1ae 143 129 2a8 1da 155 c6 5f a2 38 ff86 fec6 ff29 ffbb ffb0 ffd0 ffac ffc6 2d 125 106 36 ffb8 ff47 ff9a fee1 fff4 c8 273 266 181 15e ff7a 12a 34 62 18e 1f3 ffd6 ff79 ffbb 4e 68 ff9d ff44 1 33 84 ffdb fe93 ff2a fe8b fe42 fe14 fe8b 12 141 ffc2 ffba 43 ae 2 a2 de 1e7 e5 185 22 ffe5 ffaa ff76 ffe1 56 d0 89 70 ff2b fe58 fe4e ff7e d feef fe6b fe6a feec fe61 fe4a ff12 1a6 47 a 16a 136 ffef 1cf a3 3 7a 97 b5 154 119 48 ffc2 feea fdf8 fec5 ff10 ffa8 ff5e 3d ff03 fe4e fe0a fdfd fe6c a 83 3b 93 f7 ffab c1 10a ffc1 28 ad ec 99 ffde ffa8 ff9e ff5b ff1d fec1 ff53 ff2f ff9e ad ffb7 ff13 fe0a fe85 fe9d f9 ffac 8b c1 165 fff2 132 ffa3 ff71 40 b fffa fff1 fef8 ff6d ff0a ffe3 ff72 fe5e fed1 ff31 ffce bb 40 ffc0 8c 48 fed7 ef ff89 12c ad 18a 2c 7a feb6 fea7 fdd1 fcc1 fe2e ff02 ff2d ff7e fece feb6 fefb fe3d feba ff89 ffd0 d6 5d 2b b9 aa fffc 194 e5 ffa1 d4 253 118 10d fe97 fcab fb54 fa6c fb7a fc7d fd1f fdc3 fe83 fe88 ff37 fec6 ff3c a9 69 18 26 fff4 ffcf 35 ffc4 1a5 e0 a fe 109 233 77 fe62 fdbe fc31 fb46 fade fa88 fab2 faa9 fb79 fd04 fe93 fe6c 25 cf 66 42 49 ff8f fefe ffb0 d6 18b b9 e 46 150 48b 17c fe6c fe7a fe6f fe2b fcf4 fc5c fb92 fa63 fb73 fe35 58 42 1c 41 a3 c 104 1a ff2d 5c fd 2e ff31 41 70 9b 345 1f7 d b ffe7 5d ff5c fef5 fea7 feb6 ff4d ea 1bb 9e 3c 85 47 92 86 ff2b ffe5 114 b5 fec2 ff7a ffd5 fff1 44 287 167 133 c3 150 210 9d 112 1f3 1d1 207 250 1fe f3 e3 a0 c2 ff7e fe61 2d 1c7 7e ff6b 15 7e 19 2a ff4f 3d 113 51 5f 1b8 24b 219 22e 283 25c 2a8 23e 1a0 105 ffe3 ffcc 27 ff21 ffb0 103 294 67 fef4 5f 33 33 ffc2 ffa2 ffb0 8f ab ffc9 ffeb 196 1f6 21e 237 1be 14f 17c 13c a5 b1 bc fc ffe6 ffed 1f2 292 ff8d fdcb ffcc 6e 24 0 226 128 190 17b df 2a 67 1aa 26a 216 119 7e 120 172 98 19a 95 ff9a 31 119 17f c1 ff10 fe3a fff3 43 36 ffd9 37 1d8 269 316 25e 265 215 164 122 42 89 4a a3 90 58 1d2 61 fedc ff26 43 115 79 ff4f ff48 25 ffdd ffc7 ffd0 5e 176 152 240 2c6 300 2d6 1f5 100 6b 167 12c ff75 ff71 fff1 fff8 ffd9 101 a9 80 17b 151 4f b ffe7 ffe4 ffd3 f 23 46 69 4 25 ffdf 199 19b 1ab 248 266 2c2 1f8 2e3 221 d4 f6 1ed 13b 65 b7 ffbd 4e 1 ffe9 ffe7 ffd2 ffbe d ffec d6 b9 1c6 247 269 c7 4e ffa7 13d 1f9 72 ffc6 123 184 bd d5 71 ff8e 59 37 3f ffbf 31 19 26 ffd7 29 33 33 28 ffd1 fffa ffce 45 35 21 36 78 a3 9c ffe3 3c ffe9 ffdb d ffdd 27 ffb9 31 ffdd fff3 fff7 ffc5 18 48 2 ffd2 14 28 ff91 ff48 ff34 ff41 ff40 ff27 33 4f 52 7c ffcb fede ff5e fff5 ffd0 ffe1 fffe ffc9 ffd5 ffee 8 27 ffc7 86 50 ed ff7a ffbf 34 9 ff13 fe91 ffa4 113 107 9 e f0 ff64 ffae 5b a d5 14e 13d 146 43 44 3e 34 0 ab 27 ffe7 a2 ff5c ff05 ff14 b1 1c2 80 fff4 11c 128 65 1ee 11a fff7 ff46 ab e4 103 7f ffb4 4a 3c 1c fff3 ffbd 3 e9 98 fea1 fe73 fe04 fe79 ffc7 ff5d 6d ffd5 c3 120 62 ab c9 36 ba 135 32 ff60 ff91 fe5e fdd2 ff4a 7b 24 fff2 ff5a ff27 ff18 fe47 fee4 ff40 ff20 fef7 ff92 10 ffc3 5d dd 1cd 1c1 165 70 63 65 1f ff72 fdc4 fd6b fe3b fdeb 26 ffc9 ff75 fe75 ff58 ff10 fed7 fe6a ff1a fea2 fe0f fffd a5 51 ffd9 ff80 8a 10f 16e 1ca 110 57 d0 eb fed5 fdc3 feb0 fdbe ff31 ffc4 fed0 ff8c fff2 ffaa ff32 ff5d fe39 fd53 ff16 81 101 fff1 ff33 fe7a ffd2 7b 172 1ec 161 10a 110 fc 9b b2 11 fed8 ff2a ffbe ffaf d7 4 ff26 fe62 ff3c ff68 ff7a 29 56 73 ffd7 ffab 1d fff9 6e a2 dc 148 70 ac 7a 144 10f ff72 ffd0 ff25 ffec ff6c c2 ffd5 ff32 fe59 ff5e ffc6 ffe6 ffc3 ffb5 fff1 1b f1 91 ff19 fd9d fdba ff05 da 1b6 16a 129 24e 175 3f ffbd ffed 0 ff0a fff5 ff8b fefb ffc9 ff74 ffdd ffc6 ffc6 ffaa ffbe 4c d b4 ff76 fd60 fe13 fe8a ffb4 df 180 211 316 1c fe6c fef7 aa 2a ffdd 120 fe63 ff08 ff82 ffdf 17f 6d 4d a ff83 ff70 ff65 ffc1 ff15 fd64 fcd1 fd15 fee2 5e 160 180 29b a3 17 0 98 10 4e 16a 96 ff7d 28 4d 96 ffff 5d ff6c ffa3 61 ffca fedf fe6c fecd fe92 fe3f ff60 10f 267 243 304 24f 133 ba 10b 1d 91 1a7 ff84 7 3c 1e8 e3 f0 ffec 4 56 dc 66 17 ffa7 ffa0 ff86 59 70 184 1ce 284 266 1f0 1af 282 173 38 fef3 fefe fe89 8d 179 187 1a9 d8 3a 39 18a 17e 75 ffca ff88 ff45 25 c3 127 170 1e1 1c7 ce 1aa 268 35a fe ffb9 ff04 feee ff8a a8 15f 8e 1e7 1ea 1e0 217 15c 12d ffcb ffa9 ff39 fffb ff7e af ed 9e 1aa 177 f 36 21c 18d 10b 33 ff8a ff5d fec4 83 c2 1cc 25f 2b1 34d 2e7 e1 fef2 fe52 ff5f ffc3 ffee 39 0 fffe ffeb 12e 1c5 b fed6 2ab 313 e2 32 ff35 ff2e fed3 8b ffc4 e0 1fd 344 46a 1cc feb7 fd84 fecc 3a ff5e ffd8 ff56 ff4f ff2b ffa2 fa 184 94 d8 305 143 159 ffe8 ff03 ff1b fd9c fff8 ffb5 d7 276 426 486 ff72 fc3e fbe1 fe72 ff40 fe5d ff51 1d ff6a fe99 ff57 98 152 200 13d 1bd 271 e2 ffcf a2 fef6 fdc3 1e ffbe 131 253 3d9 39b fe39 fb1d fd36 fe51 ff2e fe99 ff8d ffb6 ff13 ff49 ff7b 194 26e 160 fff0 ffa2 24c 4f 24 ffed ffa6 4e e8 bb 178 299 2d8 1bf ff28 fd51 fe47 fea5 fe58 feed fdaf fda1 fe87 ff91 ff6e 19a 156 ffb8 ff0c fee0 235 ffec ffdf ffcc ff2f 1e5 105 1a6 288 2a8 1e5 21a b4 ff60 fe7d fe69 fe4d fe48 fdea fe5c fe63 feff ff9a 1a fe feec fefd fea6 5a 93 4 ffab 0 c6 136 1a2 2d4 289 206 225 1e0 e1 fff3 ff70 fe49 fd83 fe34 ff19 ff30 ff4d fe70 ff06 34 fe18 fe7c febb fff6 58 fffb ffd9 ff01 ff7d ff54 fffb 11f 1b4 215 18c f2 86 c ff73 fe7f fdf7 fde3 fe75 fdfe fd46 fd80 fea7 ff06 fe31 ff1c ff9a ffbb 45 18 6 ff76 fe42 fe17 fead 8e da 1e3 170 12b d1 5f ffad fe85 fe1b fd06 fda6 fd2a fc2b fd64 fd59 fe29 ff00 ff58 8a 93 ffcb 3 31 ffc2 ffdc ff03 fec4 12b 109 188 fc 125 ff55 ff09 fe92 fe91 fd70 fcf4 fc90 fdc3 fe7f fee3 fe66 fe00 fe8e feea c1 be 2 ffc5 ffc5 24 fffc 163 269 232 17d 