ff6c 217 fc56 151 ffb2 ffd0 191 fb1f fc2e 17f 8f fcea 1ef 11c fe17 feba fb90 d4 f862 c4 fe2d fc70 178 162 fcae fdf9 ff41 ff2f fff2 12e 3a0 fedc 179 12d 19b ff44 7c fae8 ff33 17f fb22 11d fdbc fb80 fd8c 23c fc48 162 fe21 fc10 fffa facf ffca ff21 f0 fd0d 6 171 28d 2d 230 148 fae4 27b 5a 92 6a fd46 0 fe8f 143 2b5 388 ff5d fd28 115 ff39 ff93 182 29a ff47 ff0c fb57 fd38 1fc f8f3 fc7d 48e fd02 f96d fffa ffe8 163 ffd7 fbfd fb9d fc9e fdd8 ffe0 1ab fb 0 fb53 fee3 fe69 fcc0 feb8 45 105 42 1ac fe69 fd75 fe ffa0 176 28c 215 61 1d5 ff4d 25e 14c 18b fe66 167 f8d7 fdbd ff38 ffda 127 101 194 fde3 ff5d fece fc05 fe56 ffdb fe79 396 55 f884 356 c3 136 fd5c 3ee 68 fed4 ff09 ff4d 1d7 fe1d fb1f fec9 227 e2 22e bc fd28 ff05 65 fbb7 12c 138 1f0 fe01 d5 fdd2 e3 3a faab ff63 fbe8 249 29 ffdc ff8c 1d4 fb51 15 145 163 123 fd87 fd28 aa 196 96 ffb9 fe7a 16c fd4d 2f4 204 fccd fd93 9d ff86 ffaf b fdad ef fcde 1cb ff17 e9 fa49 fd27 fce0 ff0f ff84 fe20 fe81 ac faf0 468 119 ffa3 fde1 10f fce1 fb29 33f fe0c ffc3 fe40 2d1 fca8 ff2a d9 fc92 feaa fe4b db 1d3 3db fff5 1bb fcc5 106 231 25 ff20 f63c f959 167 147 61 79 161 39e fe39 103 122 3d 151 20f 111 32 fca0 4b fb70 fea5 fa37 ffff fca4 186 1ec fd85 fdea b9 11b 278 fd97 2db 287 f6 2a4 fa3d ffc0 fda8 140 ff25 ffb6 ffc3 fcd8 10b ff33 d4 fcc3 fee0 fbca fa5d a9 59b f4 72 fea8 5a fd53 ca fc98 ad fc9b 10f fca6 faea 1a5 19c 98 12f 79 fc70 f9ed fe0b fea1 fdd9 253 221 1a7 d6 a5 fde2 fddf ff9a f97c fea9 fa14 ffec dc fda6 b7 faf5 158 262 fc26 63 fec8 fb48 ca fd5b f9ad 227 fd01 42d 140 12a 22 eb 207 fe2e 1ec febb f7 fc06 fcf9 1c3 fc6b ffa6 8d ffe6 feb9 fe34 f6 37f fd93 fad7 fe9c 2ab 1e5 82 fc83 23d 322 fff6 df fafe ff3f fdf4 ff7d 36 fe00 a4 36 ffb0 31 fae9 1 304 3 52 1fc e8 85 fc15 ff96 fdbd fe0c eb ff75 fcf4 a fcfa 15 fe86 1da ff47 9d ec 147 fedc 98 1db 4b fcfd fccb fff1 a8 fd77 fe50 fa9f 93 9e 194 14d ae 18f f8f7 225 6e feab ff92 ffeb 119 ff79 fe33 21f ff18 fbae 17c f991 fead 35 b1 fe13 f876 265 c0 3b ffb7 ffa1 37 2fa 1e0 fd54 11c fe87 fdcc fb9e ffb7 108 26e b3 289 f887 ff3a 10d f94d fe81 f7b8 fec5 fdb0 ff83 fa51 7 211 fd8f ff8c ffe9 5f 1c9 fd8e 225 ffb9 feb9 fe00 e9 145 f7eb 124 28c ff05 1e9 fe66 63 7e 109 ff0c 